<pad>	0
<unk>	0
<bos>	0
<eos>	0
<|user|>	0
<|assistant|>	0
<|end|>	0
ie	-0
▁p	-1
▁w	-2
ow	-3
na	-4
▁s	-5
▁z	-6
ni	-7
cz	-8
rz	-9
st	-10
ch	-11
ra	-12
nie	-13
▁d	-14
▁o	-15
ro	-16
▁t	-17
▁m	-18
▁k	-19
ne	-20
sz	-21
▁na	-22
▁i	-23
li	-24
ar	-25
ny	-26
le	-27
dz	-28
▁po	-29
ka	-30
je	-31
ia	-32
▁P	-33
go	-34
ki	-35
rze	-36
er	-37
ię	-38
▁b	-39
ta	-40
re	-41
la	-42
▁do	-43
ów	-44
owa	-45
ła	-46
▁1	-47
▁W	-48
▁S	-49
nia	-50
▁za	-51
ci	-52
or	-53
ko	-54
ja	-55
ce	-56
▁2	-57
ty	-58
wa	-59
da	-60
▁a	-61
rzy	-62
mi	-63
▁M	-64
▁wy	-65
no	-66
▁u	-67
▁K	-68
▁je	-69
kie	-70
ku	-71
te	-72
cy	-73
ło	-74
en	-75
▁(	-76
▁się	-77
sta	-78
ją	-79
▁nie	-80
▁B	-81
ma	-82
▁C	-83
ry	-84
▁A	-85
▁ko	-86
że	-87
▁g	-88
▁N	-89
▁prze	-90
▁D	-91
tu	-92
▁T	-93
czy	-94
cze	-95
po	-96
cie	-97
▁-	-98
to	-99
wo	-100
▁ro	-101
owe	-102
▁20	-103
ści	-104
dy	-105
▁O	-106
lo	-107
owy	-108
ca	-109
▁Z	-110
wi	-111
▁R	-112
lu	-113
▁od	-114
my	-115
▁Po	-116
dzie	-117
ru	-118
cj	-119
..	-120
nych	-121
▁f	-122
▁G	-123
em	-124
▁L	-125
wie	-126
in	-127
▁J	-128
▁mo	-129
ły	-130
▁ma	-131
szy	-132
zy	-133
ski	-134
pi	-135
▁te	-136
za	-137
▁ja	-138
on	-139
ży	-140
▁–	-141
▁to	-142
pa	-143
ga	-144
ob	-145
sze	-146
▁jest	-147
▁I	-148
du	-149
cji	-150
tó	-151
00	-152
▁pro	-153
am	-154
▁201	-155
skie	-156
as	-157
▁przy	-158
de	-159
raz	-160
łu	-161
▁ty	-162
▁któ	-163
an	-164
▁F	-165
owie	-166
▁in	-167
dzi	-168
▁cz	-169
▁ta	-170
ść	-171
si	-172
▁c	-173
mie	-174
▁19	-175
▁dz	-176
cja	-177
gi	-178
▁e	-179
sy	-180
▁ś	-181
▁pod	-182
ró	-183
nej	-184
by	-185
ter	-186
▁by	-187
▁re	-188
▁H	-189
▁sp	-190
▁U	-191
wia	-192
il	-193
▁E	-194
▁ob	-195
▁3	-196
▁mie	-197
▁sz	-198
sa	-199
▁Na	-200
▁że	-201
nego	-202
om	-203
owo	-204
ska	-205
al	-206
ną	-207
wy	-208
bi	-209
▁pra	-210
▁ch	-211
mu	-212
nym	-213
ek	-214
▁wie	-215
▁roz	-216
owi	-217
ur	-218
pie	-219
20	-220
▁dla	-221
ez	-222
▁st	-223
▁li	-224
▁h	-225
sza	-226
ków	-227
...	-228
gra	-229
ba	-230
es	-231
cia	-232
bie	-233
un	-234
▁ka	-235
pe	-236
kt	-237
sty	-238
dni	-239
ier	-240
▁sta	-241
▁r	-242
mo	-243
▁n	-244
▁pa	-245
▁lu	-246
et	-247
pu	-248
dze	-249
niu	-250
fi	-251
▁4	-252
cho	-253
▁oraz	-254
▁przez	-255
sto	-256
owych	-257
ju	-258
osta	-259
men	-260
▁jak	-261
▁czy	-262
io	-263
▁go	-264
▁Za	-265
ję	-266
▁Ma	-267
ran	-268
▁5	-269
niej	-270
js	-271
▁Wy	-272
▁co	-273
▁naj	-274
▁mi	-275
do	-276
su	-277
pra	-278
▁roku	-279
stę	-280
▁kon	-281
▁ze	-282
ół	-283
▁jed	-284
cza	-285
▁ni	-286
▁la	-287
kła	-288
▁zna	-289
owej	-290
▁dzie	-291
▁tak	-292
bli	-293
gu	-294
ności	-295
ri	-296
ol	-297
iał	-298
um	-299
tycz	-300
▁Je	-301
▁spo	-302
el	-303
▁0	-304
ona	-305
tor	-306
nd	-307
we	-308
bo	-309
ti	-310
cyj	-311
towa	-312
sp	-313
▁„	-314
bu	-315
▁Ko	-316
cje	-317
▁są	-318
▁Ja	-319
▁le	-320
▁da	-321
sie	-322
▁które	-323
▁Nie	-324
▁ce	-325
▁wi	-326
▁ra	-327
tów	-328
kowa	-329
łe	-330
zna	-331
▁zosta	-332
▁Pol	-333
▁6	-334
▁|	-335
▁który	-336
▁wo	-337
19	-338
▁fi	-339
dzo	-340
▁Pa	-341
▁Do	-342
skiego	-343
▁"	-344
jący	-345
▁zł	-346
▁Ka	-347
nika	-348
▁bę	-349
▁tym	-350
rzą	-351
rowa	-352
▁200	-353
wó	-354
nik	-355
stęp	-356
ża	-357
szyst	-358
▁Ch	-359
ktu	-360
ką	-361
▁miejs	-362
for	-363
rza	-364
▁me	-365
nę	-366
cha	-367
▁Mi	-368
▁V	-369
),	-370
iała	-371
▁de	-372
owego	-373
one	-374
fer	-375
▁os	-376
▁przed	-377
pl	-378
▁bar	-379
łą	-380
▁7	-381
cu	-382
zu	-383
▁bez	-384
rod	-385
ięk	-386
▁Ro	-387
▁mu	-388
skiej	-389
lko	-390
czne	-391
▁In	-392
dza	-393
▁Mo	-394
).	-395
tra	-396
jąc	-397
▁ale	-398
▁Re	-399
is	-400
▁jako	-401
ście	-402
wią	-403
▁8	-404
ze	-405
▁pow	-406
▁lub	-407
niem	-408
ng	-409
▁sam	-410
nu	-411
jące	-412
▁swo	-413
so	-414
tk	-415
▁Przy	-416
ste	-417
▁Ś	-418
▁może	-419
mia	-420
lą	-421
201	-422
▁10	-423
▁sk	-424
ud	-425
▁moż	-426
sko	-427
▁wszyst	-428
▁czas	-429
▁ju	-430
▁sy	-431
▁produ	-432
ony	-433
kiem	-434
▁pi	-435
czą	-436
rę	-437
sią	-438
▁ku	-439
▁18	-440
▁we	-441
lej	-442
▁9	-443
war	-444
łów	-445
-0	-446
szcze	-447
▁lo	-448
▁Ta	-449
▁bo	-450
kre	-451
kę	-452
▁Sz	-453
▁wz	-454
▁/	-455
▁Pro	-456
owanie	-457
tem	-458
▁ca	-459
py	-460
szka	-461
▁ba	-462
nt	-463
▁pe	-464
▁tego	-465
ji	-466
owym	-467
▁zd	-468
▁Li	-469
▁poz	-470
▁ży	-471
śli	-472
ary	-473
▁stro	-474
▁sto	-475
tego	-476
se	-477
▁Prze	-478
powie	-479
he	-480
spo	-481
▁og	-482
co	-483
▁spra	-484
ność	-485
▁wła	-486
skim	-487
▁będzie	-488
im	-489
ierw	-490
bra	-491
▁Dz	-492
▁wyko	-493
▁war	-494
-1	-495
.0	-496
▁To	-497
▁sie	-498
▁rów	-499
ór	-500
dnie	-501
sk	-502
▁—	-503
▁Ra	-504
tni	-505
dzy	-506
ck	-507
ców	-508
▁ar	-509
tka	-510
kich	-511
ing	-512
▁powie	-513
pisy	-514
słu	-515
▁no	-516
ować	-517
róż	-518
stwa	-519
cję	-520
ery	-521
▁już	-522
skich	-523
ory	-524
się	-525
tro	-526
▁wię	-527
kty	-528
rez	-529
ób	-530
sła	-531
▁15	-532
cej	-533
▁Mar	-534
owania	-535
▁12	-536
▁tylko	-537
▁Od	-538
ote	-539
▁War	-540
▁au	-541
lę	-542
▁także	-543
wiet	-544
▁du	-545
▁pla	-546
▁bardzo	-547
▁gru	-548
cznie	-549
▁kom	-550
kim	-551
▁(1	-552
▁wa	-553
nież	-554
th	-555
cią	-556
ól	-557
▁też	-558
prze	-559
oba	-560
▁cie	-561
nię	-562
ową	-563
uro	-564
▁czę	-565
szych	-566
ali	-567
rak	-568
nek	-569
łem	-570
▁mar	-571
▁Sta	-572
kład	-573
di	-574
ge	-575
▁:	-576
czas	-577
▁Te	-578
nic	-579
▁świa	-580
forma	-581
▁ser	-582
sia	-583
▁tu	-584
rzę	-585
dą	-586
rą	-587
czę	-588
czny	-589
▁pierw	-590
trzy	-591
▁Bo	-592
▁bi	-593
▁su	-594
czo	-595
▁Le	-596
▁sa	-597
▁również	-598
▁11	-599
ort	-600
lep	-601
▁gra	-602
▁znaj	-603
tach	-604
▁samo	-605
cznych	-606
▁Bi	-607
trz	-608
▁fir	-609
den	-610
lar	-611
IE	-612
pad	-613
ckie	-614
▁dru	-615
▁dy	-616
ul	-617
▁ofer	-618
ien	-619
▁16	-620
nak	-621
me	-622
dział	-623
▁działa	-624
▁wyda	-625
stra	-626
ble	-627
iel	-628
▁14	-629
▁dob	-630
▁pol	-631
▁jego	-632
ns	-633
▁op	-634
log	-635
ii	-636
obie	-637
▁17	-638
▁ry	-639
tek	-640
trze	-641
dzia	-642
ród	-643
ner	-644
ha	-645
▁X	-646
▁13	-647
▁każ	-648
▁można	-649
szą	-650
▁199	-651
cen	-652
▁doda	-653
▁Lu	-654
wię	-655
10	-656
lne	-657
tki	-658
▁uży	-659
rezen	-660
▁ła	-661
▁wsp	-662
▁Co	-663
▁mia	-664
gani	-665
▁tra	-666
▁or	-667
praw	-668
dowa	-669
oby	-670
▁Ba	-671
two	-672
▁»	-673
▁Ł	-674
▁Przypisy	-675
szej	-676
50	-677
dź	-678
▁Ar	-679
▁być	-680
▁for	-681
▁ich	-682
śmy	-683
staw	-684
ist	-685
ec	-686
▁fa	-687
▁,	-688
▁ga	-689
▁był	-690
stwo	-691
▁mog	-692
śnie	-693
▁bu	-694
art	-695
▁inter	-696
ers	-697
▁Pod	-698
▁ele	-699
▁rze	-700
▁Wi	-701
rodze	-702
nii	-703
▁raz	-704
fia	-705
czenia	-706
zd	-707
mina	-708
os	-709
▁mieszka	-710
▁Cz	-711
rem	-712
▁nad	-713
fa	-714
od	-715
net	-716
cznej	-717
▁[	-718
▁pu	-719
▁lat	-720
ej	-721
owni	-722
:3	-723
res	-724
pro	-725
▁Pi	-726
ve	-727
AN	-728
szym	-729
▁cho	-730
nowi	-731
▁Da	-732
▁kie	-733
▁Ż	-734
owia	-735
wiąza	-736
▁Wo	-737
jemy	-738
ut	-739
unk	-740
▁fil	-741
▁jej	-742
iędzy	-743
▁pie	-744
pisa	-745
lny	-746
▁#	-747
cą	-748
▁jednak	-749
▁Me	-750
▁ten	-751
▁kra	-752
▁im	-753
▁Au	-754
▁został	-755
dzą	-756
czenie	-757
kar	-758
jących	-759
logi	-760
czu	-761
min	-762
ok	-763
mów	-764
twa	-765
▁odpowie	-766
▁Warsza	-767
per	-768
▁tej	-769
tnie	-770
stu	-771
tar	-772
taj	-773
szu	-774
▁cze	-775
ir	-776
▁ok	-777
owane	-778
▁Pra	-779
liwo	-780
▁prac	-781
stem	-782
nku	-783
▁2017	-784
łam	-785
chni	-786
omo	-787
gie	-788
▁2018	-789
czna	-790
:4	-791
ks	-792
▁spe	-793
nętrz	-794
▁głów	-795
12	-796
ński	-797
kach	-798
▁szko	-799
der	-800
tion	-801
▁Mie	-802
▁aby	-803
▁swoje	-804
mat	-805
▁kil	-806
▁ter	-807
nymi	-808
▁róż	-809
prowa	-810
▁2019	-811
rzysta	-812
pis	-813
▁on	-814
scy	-815
oru	-816
▁II	-817
tr	-818
dziej	-819
ował	-820
sku	-821
▁kolej	-822
:0	-823
dnia	-824
▁informa	-825
trzyma	-826
jem	-827
liza	-828
dzenia	-829
-2	-830
gro	-831
ER	-832
:2	-833
▁al	-834
glą	-835
▁Sa	-836
AR	-837
wu	-838
▁kla	-839
rzo	-840
ster	-841
▁Czy	-842
now	-843
szta	-844
▁(2	-845
▁nale	-846
▁miejsce	-847
▁Al	-848
▁dłu	-849
dę	-850
▁praw	-851
OW	-852
owany	-853
ment	-854
tura	-855
000	-856
▁sprze	-857
▁pracy	-858
▁Go	-859
▁kar	-860
▁wyso	-861
kiej	-862
wet	-863
hi	-864
cki	-865
▁szy	-866
zji	-867
▁która	-868
▁my	-869
rów	-870
▁gdy	-871
▁Naj	-872
▁De	-873
żą	-874
▁więcej	-875
vi	-876
ięki	-877
dia	-878
us	-879
kcji	-880
lan	-881
▁Kon	-882
▁pre	-883
▁sobie	-884
▁pomo	-885
ho	-886
▁km	-887
chi	-888
30	-889
rywa	-890
▁proje	-891
▁ru	-892
▁czer	-893
▁22	-894
łka	-895
dów	-896
▁było	-897
▁30	-898
gło	-899
rzu	-900
▁spraw	-901
▁jedno	-902
▁trze	-903
▁osób	-904
siada	-905
▁2016	-906
ciu	-907
11	-908
łę	-909
wnętrz	-910
tru	-911
:5	-912
czyć	-913
menta	-914
▁jeszcze	-915
dar	-916
.201	-917
▁Wie	-918
żo	-919
dem	-920
▁Sp	-921
czeń	-922
twie	-923
żu	-924
tę	-925
▁21	-926
ad	-927
stw	-928
▁mnie	-929
▁tem	-930
uk	-931
▁bud	-932
niki	-933
▁Euro	-934
▁...	-935
grafia	-936
▁sprzeda	-937
▁Jak	-938
▁We	-939
▁dro	-940
▁dnia	-941
▁Ty	-942
nki	-943
▁Wa	-944
szego	-945
▁Ob	-946
tych	-947
▁spos	-948
▁nas	-949
▁dzieci	-950
▁organi	-951
▁198	-952
▁La	-953
mar	-954
▁By	-955
▁zw	-956
maga	-957
▁par	-958
▁Ga	-959
sce	-960
▁pew	-961
cznego	-962
lnie	-963
▁tele	-964
ple	-965
be	-966
▁zło	-967
▁gdzie	-968
wać	-969
▁wykona	-970
▁zawo	-971
▁oko	-972
stru	-973
▁poli	-974
▁ad	-975
ój	-976
wania	-977
▁sza	-978
ces	-979
▁szcze	-980
dzin	-981
ON	-982
▁okre	-983
▁latach	-984
99	-985
stępu	-986
kłada	-987
▁24	-988
koń	-989
▁Pu	-990
cka	-991
▁of	-992
gen	-993
▁osta	-994
cer	-995
kiego	-996
ber	-997
:1	-998
and	-999
ód	-1000
▁bra	-1001
stą	-1002
tal	-1003
▁Su	-1004
peł	-1005
cowo	-1006
strze	-1007
tyw	-1008
czki	-1009
▁2015	-1010
waż	-1011
▁197	-1012
liśmy	-1013
▁obie	-1014
AT	-1015
nad	-1016
pła	-1017
▁23	-1018
ser	-1019
OR	-1020
lni	-1021
pada	-1022
siąż	-1023
istor	-1024
ron	-1025
▁znajdu	-1026
lub	-1027
lnych	-1028
▁25	-1029
kro	-1030
wer	-1031
▁bie	-1032
lem	-1033
▁prowa	-1034
dłu	-1035
▁2014	-1036
▁Lo	-1037
rodzeni	-1038
wca	-1039
chu	-1040
com	-1041
▁So	-1042
wój	-1043
▁będą	-1044
▁Bibli	-1045
szcz	-1046
owski	-1047
▁cy	-1048
▁podczas	-1049
pli	-1050
kaza	-1051
▁Ca	-1052
!!	-1053
ST	-1054
ler	-1055
▁nawet	-1056
▁poda	-1057
▁środ	-1058
▁peł	-1059
sł	-1060
jęcia	-1061
▁Bar	-1062
ss	-1063
kami	-1064
▁dzi	-1065
▁+	-1066
▁Be	-1067
obacz	-1068
▁Polsce	-1069
▁dostęp	-1070
▁warto	-1071
▁sty	-1072
tą	-1073
mach	-1074
cją	-1075
lna	-1076
usz	-1077
nią	-1078
ver	-1079
60	-1080
tera	-1081
ździe	-1082
bar	-1083
sti	-1084
nem	-1085
LN	-1086
cyjne	-1087
▁arty	-1088
rek	-1089
nach	-1090
dzić	-1091
nio	-1092
▁powo	-1093
▁2013	-1094
▁mę	-1095
bior	-1096
▁naz	-1097
ke	-1098
▁potrze	-1099
,5	-1100
▁posiada	-1101
kry	-1102
gól	-1103
pły	-1104
żej	-1105
▁x	-1106
IA	-1107
wódz	-1108
tora	-1109
prezen	-1110
któw	-1111
▁Ju	-1112
▁.	-1113
▁niż	-1114
IN	-1115
▁słu	-1116
jewódz	-1117
▁koń	-1118
ten	-1119
▁Stro	-1120
▁Ale	-1121
chy	-1122
▁rozpo	-1123
pew	-1124
▁między	-1125
ard	-1126
pol	-1127
tku	-1128
▁sze	-1129
▁rodzi	-1130
9,	-1131
▁Ci	-1132
świa	-1133
▁Mu	-1134
▁poja	-1135
▁ek	-1136
▁Ku	-1137
▁si	-1138
▁Ce	-1139
▁(19	-1140
man	-1141
▁współ	-1142
▁usta	-1143
▁tre	-1144
▁sko	-1145
▁zes	-1146
▁przygo	-1147
czes	-1148
▁spotka	-1149
▁An	-1150
▁Or	-1151
ktor	-1152
zi	-1153
bę	-1154
▁specja	-1155
cach	-1156
▁loka	-1157
tury	-1158
II	-1159
▁funk	-1160
▁stanowi	-1161
▁se	-1162
40	-1163
▁No	-1164
▁Kra	-1165
90	-1166
▁Bu	-1167
▁była	-1168
zie	-1169
▁zewnętrz	-1170
dzenie	-1171
”.	-1172
▁Polski	-1173
▁Fran	-1174
star	-1175
tery	-1176
cię	-1177
▁osob	-1178
ografia	-1179
▁Lin	-1180
fe	-1181
▁•	-1182
mery	-1183
EN	-1184
▁v	-1185
che	-1186
par	-1187
nów	-1188
śnia	-1189
▁posta	-1190
land	-1191
▁so	-1192
▁kobie	-1193
wanie	-1194
rzenia	-1195
▁zro	-1196
▁mów	-1197
arów	-1198
▁cm	-1199
ly	-1200
▁Sy	-1201
▁1.	-1202
▁gmi	-1203
▁których	-1204
nicy	-1205
▁Y	-1206
lnej	-1207
▁mło	-1208
▁poko	-1209
▁części	-1210
sów	-1211
▁two	-1212
▁pas	-1213
▁zale	-1214
▁pozy	-1215
▁progra	-1216
▁Ni	-1217
pera	-1218
dek	-1219
▁Fi	-1220
▁Doda	-1221
▁fo	-1222
dno	-1223
▁mają	-1224
▁zach	-1225
▁szyb	-1226
szcza	-1227
2,	-1228
▁Ne	-1229
▁Se	-1230
▁więk	-1231
:00	-1232
fika	-1233
rząd	-1234
strzo	-1235
▁tam	-1236
▁>	-1237
▁stycz	-1238
lien	-1239
▁Roz	-1240
▁stu	-1241
ździer	-1242
▁kol	-1243
▁proble	-1244
▁zmie	-1245
lnego	-1246
▁kiedy	-1247
gę	-1248
▁system	-1249
redni	-1250
ich	-1251
▁Jest	-1252
fo	-1253
▁tych	-1254
gh	-1255
▁rę	-1256
▁włas	-1257
▁pół	-1258
80	-1259
czka	-1260
▁wrze	-1261
▁uwa	-1262
czył	-1263
▁wiele	-1264
wór	-1265
▁100	-1266
nera	-1267
łowie	-1268
szenia	-1269
▁pły	-1270
▁niez	-1271
czej	-1272
tw	-1273
▁Fa	-1274
▁mogą	-1275
onu	-1276
ników	-1277
ścia	-1278
śród	-1279
▁więc	-1280
jąca	-1281
ezpie	-1282
ura	-1283
▁zie	-1284
mier	-1285
▁Uni	-1286
▁the	-1287
▁kró	-1288
glę	-1289
cznym	-1290
wał	-1291
orów	-1292
▁Dla	-1293
▁najlep	-1294
liz	-1295
▁opi	-1296
KA	-1297
▁nich	-1298
▁por	-1299
nowa	-1300
stro	-1301
▁min	-1302
▁samocho	-1303
tne	-1304
qu	-1305
▁kilka	-1306
▁sposób	-1307
▁Bibliografia	-1308
otel	-1309
cych	-1310
15	-1311
▁fina	-1312
▁woj	-1313
▁publi	-1314
czest	-1315
▁usłu	-1316
▁cią	-1317
▁przypad	-1318
▁py	-1319
łych	-1320
fek	-1321
roni	-1322
24	-1323
łym	-1324
ształ	-1325
chodzi	-1326
▁ge	-1327
▁innych	-1328
▁mówi	-1329
lenia	-1330
kcja	-1331
▁świat	-1332
▁możliwo	-1333
▁którym	-1334
dne	-1335
▁ci	-1336
▁zwy	-1337
▁Kom	-1338
mini	-1339
dej	-1340
▁auto	-1341
lim	-1342
▁powsta	-1343
iad	-1344
spodar	-1345
zja	-1346
▁mater	-1347
▁2011	-1348
▁ws	-1349
nk	-1350
ciw	-1351
por	-1352
▁temu	-1353
łowa	-1354
▁lip	-1355
▁sku	-1356
rii	-1357
nka	-1358
świet	-1359
ńskiego	-1360
.00	-1361
lia	-1362
▁stra	-1363
gar	-1364
--	-1365
18	-1366
óź	-1367
rom	-1368
pnia	-1369
zo	-1370
sław	-1371
▁nr	-1372
▁Pe	-1373
va	-1374
biera	-1375
▁ul	-1376
▁2012	-1377
▁muzy	-1378
▁wypo	-1379
uje	-1380
kra	-1381
uka	-1382
▁Par	-1383
wiąz	-1384
żenie	-1385
▁Jo	-1386
▁firmy	-1387
▁paździer	-1388
sh	-1389
▁50	-1390
▁każdy	-1391
▁27	-1392
25	-1393
▁maja	-1394
▁sier	-1395
▁zmia	-1396
▁194	-1397
▁Kar	-1398
▁świe	-1399
▁listo	-1400
szo	-1401
▁nowo	-1402
▁pole	-1403
ńska	-1404
▁Zobacz	-1405
▁elekt	-1406
▁internet	-1407
wen	-1408
try	-1409
łości	-1410
▁For	-1411
▁dni	-1412
OM	-1413
▁Strona	-1414
rea	-1415
rab	-1416
gląda	-1417
maty	-1418
jo	-1419
daw	-1420
czni	-1421
mowa	-1422
dow	-1423
świad	-1424
AC	-1425
▁nam	-1426
▁wszystkie	-1427
▁gro	-1428
▁domu	-1429
▁Ser	-1430
▁stycznia	-1431
▁zapew	-1432
szko	-1433
▁dzięki	-1434
cła	-1435
▁:)	-1436
▁którzy	-1437
czywi	-1438
▁mieszkań	-1439
miast	-1440
jącego	-1441
▁26	-1442
▁temat	-1443
owią	-1444
▁wieku	-1445
▁The	-1446
języ	-1447
dł	-1448
wane	-1449
▁sez	-1450
omości	-1451
▁oka	-1452
2.	-1453
▁Dzie	-1454
▁wło	-1455
▁pom	-1456
▁28	-1457
▁Du	-1458
▁została	-1459
zacji	-1460
▁miejscowo	-1461
meryka	-1462
▁tran	-1463
▁kwiet	-1464
▁wszystkich	-1465
▁2020	-1466
▁kole	-1467
miar	-1468
▁zewnętrzne	-1469
kur	-1470
naj	-1471
tami	-1472
ton	-1473
▁ponad	-1474
bezpie	-1475
zuje	-1476
21	-1477
wsze	-1478
▁Pla	-1479
nes	-1480
tur	-1481
▁stos	-1482
▁związa	-1483
dania	-1484
▁marca	-1485
▁PR	-1486
gna	-1487
▁nau	-1488
▁należy	-1489
▁takie	-1490
▁ją	-1491
żenia	-1492
....	-1493
czego	-1494
▁prof	-1495
▁star	-1496
stawie	-1497
ria	-1498
▁trzy	-1499
▁czyli	-1500
OL	-1501
ckiego	-1502
czną	-1503
nosi	-1504
▁Ha	-1505
▁począ	-1506
▁pozosta	-1507
rach	-1508
▁czerwca	-1509
len	-1510
▁właści	-1511
▁książ	-1512
▁Ży	-1513
▁strony	-1514
tel	-1515
▁Ho	-1516
dań	-1517
Po	-1518
▁Two	-1519
AM	-1520
kla	-1521
▁ż	-1522
▁zaku	-1523
▁wielu	-1524
▁Linki	-1525
amię	-1526
▁wszystko	-1527
szenie	-1528
▁kosz	-1529
16	-1530
▁US	-1531
▁pła	-1532
▁zdr	-1533
▁195	-1534
nić	-1535
▁odby	-1536
70	-1537
mio	-1538
ską	-1539
▁której	-1540
mis	-1541
▁para	-1542
▁stanie	-1543
stów	-1544
▁obec	-1545
rew	-1546
muje	-1547
▁be	-1548
łoż	-1549
▁klasy	-1550
▁września	-1551
OD	-1552
śla	-1553
▁zamie	-1554
▁wyb	-1555
▁dom	-1556
▁2010	-1557
14	-1558
▁ak	-1559
▁and	-1560
▁zm	-1561
▁wzglę	-1562
łego	-1563
kona	-1564
",	-1565
KI	-1566
13	-1567
▁Cen	-1568
nością	-1569
del	-1570
rwa	-1571
pia	-1572
▁Ze	-1573
dług	-1574
▁klien	-1575
▁musi	-1576
▁jakie	-1577
line	-1578
▁wal	-1579
▁Gra	-1580
▁wybra	-1581
▁And	-1582
▁wol	-1583
row	-1584
▁nim	-1585
stawi	-1586
▁wojewódz	-1587
▁zam	-1588
▁zdoby	-1589
tej	-1590
▁uro	-1591
▁196	-1592
kle	-1593
▁października	-1594
▁kur	-1595
▁miasta	-1596
▁przeciw	-1597
23	-1598
▁stronie	-1599
CZ	-1600
▁tru	-1601
▁poprze	-1602
więk	-1603
stos	-1604
ktyw	-1605
▁grudnia	-1606
▁wiel	-1607
łó	-1608
▁gło	-1609
".	-1610
▁chce	-1611
kowi	-1612
szę	-1613
▁Urodzeni	-1614
▁kwietnia	-1615
▁rodza	-1616
owana	-1617
▁Ge	-1618
tory	-1619
▁czasie	-1620
▁języ	-1621
.,	-1622
lnym	-1623
▁PLN	-1624
cyjny	-1625
ktual	-1626
grani	-1627
▁dwa	-1628
tan	-1629
▁Rze	-1630
stąpi	-1631
▁kam	-1632
dniej	-1633
▁skó	-1634
▁zda	-1635
▁Poli	-1636
SZ	-1637
AL	-1638
▁sztu	-1639
▁prezen	-1640
publi	-1641
kowe	-1642
▁Ry	-1643
4,	-1644
▁lipca	-1645
▁firm	-1646
▁kier	-1647
lenie	-1648
▁Tu	-1649
▁ża	-1650
łej	-1651
▁kto	-1652
17	-1653
▁zawie	-1654
▁Pre	-1655
▁listopada	-1656
▁zrobi	-1657
▁Sam	-1658
5,	-1659
▁Warszawa	-1660
▁Cie	-1661
▁urzą	-1662
▁długo	-1663
▁Jeśli	-1664
▁zespo	-1665
rocła	-1666
▁rozwiąza	-1667
tyczne	-1668
–19	-1669
zł	-1670
lin	-1671
let	-1672
▁klu	-1673
”,	-1674
200	-1675
▁powin	-1676
1,	-1677
▁reali	-1678
▁193	-1679
▁Ru	-1680
▁Fo	-1681
pod	-1682
ścią	-1683
cyjnych	-1684
▁konie	-1685
zacja	-1686
ios	-1687
▁mam	-1688
lik	-1689
▁były	-1690
▁otrzyma	-1691
▁cha	-1692
▁sierpnia	-1693
▁an	-1694
▁czasu	-1695
tua	-1696
▁bardziej	-1697
8,	-1698
dal	-1699
wczy	-1700
▁powierz	-1701
▁ponie	-1702
22	-1703
▁zapa	-1704
▁ha	-1705
▁umie	-1706
▁&	-1707
▁Inter	-1708
▁bezpie	-1709
▁2.	-1710
piej	-1711
▁zgo	-1712
▁pyta	-1713
skona	-1714
▁uzy	-1715
▁dobrze	-1716
▁przygotowa	-1717
▁Krzy	-1718
ts	-1719
▁konta	-1720
▁Spo	-1721
3,	-1722
CH	-1723
▁sło	-1724
dził	-1725
▁życia	-1726
noc	-1727
▁chwi	-1728
▁następ	-1729
wala	-1730
▁ostatni	-1731
▁29	-1732
ren	-1733
▁świata	-1734
▁Szko	-1735
▁Polska	-1736
7,	-1737
nąć	-1738
prac	-1739
▁spa	-1740
▁histor	-1741
umer	-1742
ld	-1743
▁póź	-1744
▁Wszyst	-1745
▁pięk	-1746
▁lutego	-1747
▁Pań	-1748
▁St	-1749
wki	-1750
stwie	-1751
▁społe	-1752
cić	-1753
twar	-1754
▁udział	-1755
wali	-1756
▁tro	-1757
▁zapo	-1758
▁Dy	-1759
▁zwie	-1760
owiada	-1761
chro	-1762
żeli	-1763
▁danych	-1764
limpi	-1765
6,	-1766
▁(3	-1767
jskich	-1768
1.	-1769
▁Wiel	-1770
ńskiej	-1771
▁mini	-1772
▁czar	-1773
jona	-1774
budowa	-1775
▁jaki	-1776
▁wszystkim	-1777
▁jedy	-1778
▁kry	-1779
dio	-1780
▁zakre	-1781
▁reprezen	-1782
▁pan	-1783
lizacji	-1784
▁waż	-1785
▁Pozna	-1786
menty	-1787
nienia	-1788
▁rok	-1789
bardziej	-1790
czone	-1791
tyka	-1792
ministra	-1793
▁jeśli	-1794
grzy	-1795
▁Gru	-1796
cenia	-1797
▁zawsze	-1798
żczy	-1799
pozy	-1800
kości	-1801
▁coś	-1802
▁miejscu	-1803
are	-1804
tkowo	-1805
wyż	-1806
▁znajduje	-1807
▁cię	-1808
▁recen	-1809
▁ki	-1810
▁Fe	-1811
ere	-1812
chodzą	-1813
▁jakości	-1814
▁Cho	-1815
▁ne	-1816
▁zaj	-1817
▁artyku	-1818
łość	-1819
▁miał	-1820
cle	-1821
▁sob	-1822
stan	-1823
▁mm	-1824
ED	-1825
▁Mia	-1826
kow	-1827
gan	-1828
▁inne	-1829
wersy	-1830
▁teraz	-1831
cent	-1832
▁budy	-1833
2019	-1834
łon	-1835
chno	-1836
gle	-1837
inter	-1838
onie	-1839
▁łą	-1840
▁ide	-1841
▁siebie	-1842
);	-1843
▁licz	-1844
mowy	-1845
lności	-1846
▁którego	-1847
towy	-1848
wier	-1849
pular	-1850
bia	-1851
▁wers	-1852
▁40	-1853
▁jeden	-1854
▁katego	-1855
tacji	-1856
owników	-1857
▁wymaga	-1858
kość	-1859
stytu	-1860
wersyte	-1861
▁godz	-1862
nica	-1863
at	-1864
▁cieka	-1865
UR	-1866
▁typu	-1867
▁przypadku	-1868
prasza	-1869
▁uczest	-1870
owanych	-1871
▁Jan	-1872
tyczą	-1873
śniej	-1874
▁Si	-1875
licy	-1876
mon	-1877
zer	-1878
▁sport	-1879
lina	-1880
▁He	-1881
▁często	-1882
owarzy	-1883
▁autor	-1884
▁właśnie	-1885
▁Przed	-1886
sem	-1887
▁dotyczą	-1888
żli	-1889
▁sil	-1890
▁*	-1891
▁związ	-1892
▁użytk	-1893
kowy	-1894
gnie	-1895
▁osoby	-1896
nta	-1897
▁skle	-1898
pre	-1899
EL	-1900
▁Produ	-1901
▁kre	-1902
cjona	-1903
mii	-1904
ET	-1905
▁ramach	-1906
jcie	-1907
▁Hi	-1908
▁efek	-1909
gów	-1910
▁Świa	-1911
45	-1912
▁serwi	-1913
▁uda	-1914
wodni	-1915
wal	-1916
▁zakoń	-1917
gii	-1918
szczy	-1919
▁mniej	-1920
OT	-1921
▁Sk	-1922
88	-1923
▁Jed	-1924
▁60	-1925
▁komenta	-1926
▁pomy	-1927
▁lek	-1928
▁pun	-1929
▁zaba	-1930
wóch	-1931
ome	-1932
dra	-1933
▁znale	-1934
▁Hotel	-1935
ckiej	-1936
▁naszej	-1937
▁Sto	-1938
▁główna	-1939
▁pierwszy	-1940
tny	-1941
▁Ad	-1942
▁gospodar	-1943
lii	-1944
▁takich	-1945
łudni	-1946
▁tłu	-1947
▁drugie	-1948
ruch	-1949
▁Szcze	-1950
▁trzeba	-1951
▁żeby	-1952
tuje	-1953
wę	-1954
▁tere	-1955
jskiej	-1956
▁godzi	-1957
▁kraju	-1958
▁kul	-1959
lach	-1960
siębior	-1961
kom	-1962
gą	-1963
▁miejsca	-1964
czony	-1965
▁produktu	-1966
jski	-1967
▁mieszkańców	-1968
ros	-1969
żyć	-1970
▁regu	-1971
▁obsłu	-1972
48	-1973
▁2009	-1974
▁połą	-1975
logii	-1976
▁dwóch	-1977
reb	-1978
czeniu	-1979
dzieć	-1980
▁oferty	-1981
▁pił	-1982
▁kilku	-1983
▁pię	-1984
▁wpły	-1985
grafi	-1986
▁dzień	-1987
▁zde	-1988
id	-1989
▁gry	-1990
▁charak	-1991
▁Nr	-1992
▁robi	-1993
nami	-1994
▁ml	-1995
▁sytua	-1996
Ma	-1997
▁hote	-1998
▁najbardziej	-1999
ou	-2000
▁lata	-2001
jącej	-2002
ower	-2003
wski	-2004
wą	-2005
▁wraz	-2006
▁komu	-2007
▁około	-2008
-201	-2009
▁die	-2010
cześniej	-2011
▁podob	-2012
cin	-2013
rzenie	-2014
▁uzyska	-2015
ńskie	-2016
▁Fil	-2017
zdy	-2018
zyden	-2019
raca	-2020
▁regi	-2021
4)	-2022
▁zasa	-2023
▁Wrocła	-2024
▁później	-2025
26	-2026
▁ludzi	-2027
mienia	-2028
▁per	-2029
75	-2030
▁Bra	-2031
it	-2032
▁świet	-2033
▁tytu	-2034
3.	-2035
iały	-2036
▁decy	-2037
▁y	-2038
▁informacji	-2039
towe	-2040
▁korzysta	-2041
▁poś	-2042
▁natura	-2043
▁My	-2044
cm	-2045
▁dosta	-2046
▁doświad	-2047
▁cen	-2048
▁Miejs	-2049
▁;	-2050
▁razem	-2051
▁met	-2052
▁ogło	-2053
▁sek	-2054
▁budow	-2055
4.	-2056
▁profes	-2057
▁pamię	-2058
▁ani	-2059
chę	-2060
▁3.	-2061
IT	-2062
▁dwu	-2063
nij	-2064
feren	-2065
▁09	-2066
AS	-2067
arówno	-2068
tym	-2069
ium	-2070
▁sprawie	-2071
▁Vi	-2072
▁Zd	-2073
rób	-2074
▁inwe	-2075
łow	-2076
fon	-2077
Wy	-2078
jącym	-2079
ger	-2080
mniej	-2081
▁Dzięki	-2082
▁Wło	-2083
▁celu	-2084
▁Uniwersyte	-2085
kacji	-2086
ian	-2087
▁doku	-2088
▁wspól	-2089
▁szczegól	-2090
▁warun	-2091
▁ener	-2092
les	-2093
oną	-2094
▁np	-2095
▁dobre	-2096
tomiast	-2097
kuje	-2098
▁tutaj	-2099
▁atra	-2100
IS	-2101
-19	-2102
▁moje	-2103
rum	-2104
▁Są	-2105
ES	-2106
▁nowe	-2107
OS	-2108
▁Tak	-2109
ction	-2110
któ	-2111
szki	-2112
tow	-2113
▁kli	-2114
▁konkur	-2115
▁wę	-2116
szuki	-2117
cę	-2118
dego	-2119
▁samy	-2120
ckim	-2121
czyła	-2122
▁obej	-2123
▁wska	-2124
ego	-2125
czek	-2126
cep	-2127
▁Pierw	-2128
▁życie	-2129
mentu	-2130
rój	-2131
▁niej	-2132
▁rynku	-2133
▁swoją	-2134
▁doskona	-2135
▁obowią	-2136
▁wprowa	-2137
2)	-2138
▁ozna	-2139
stnie	-2140
▁film	-2141
▁foto	-2142
29	-2143
łkarze	-2144
▁albo	-2145
ciel	-2146
chnia	-2147
▁bli	-2148
czności	-2149
czyna	-2150
-3	-2151
▁San	-2152
IC	-2153
▁aż	-2154
▁mistrzo	-2155
▁powia	-2156
▁pozna	-2157
27	-2158
▁kro	-2159
▁wyposa	-2160
▁wieś	-2161
pla	-2162
▁ofi	-2163
Na	-2164
▁moc	-2165
pania	-2166
danie	-2167
dowy	-2168
gram	-2169
▁podstaw	-2170
gina	-2171
rysty	-2172
dach	-2173
rie	-2174
dro	-2175
▁Autor	-2176
óg	-2177
parta	-2178
▁Pie	-2179
▁Wil	-2180
▁szero	-2181
▁daw	-2182
▁Cena	-2183
▁ska	-2184
6)	-2185
28	-2186
mal	-2187
śni	-2188
▁ban	-2189
czonych	-2190
▁at	-2191
waran	-2192
▁pora	-2193
▁część	-2194
▁wśród	-2195
▁pań	-2196
▁Pio	-2197
▁zawiera	-2198
▁hi	-2199
▁druży	-2200
▁miesią	-2201
▁ilo	-2202
▁czym	-2203
lność	-2204
65	-2205
▁człowie	-2206
matycz	-2207
▁2008	-2208
▁ź	-2209
deo	-2210
ted	-2211
rami	-2212
staura	-2213
czywiście	-2214
98	-2215
kon	-2216
▁następu	-2217
narod	-2218
leń	-2219
działu	-2220
RA	-2221
▁Wię	-2222
dam	-2223
▁Gdy	-2224
lacji	-2225
aru	-2226
lon	-2227
▁tygo	-2228
czych	-2229
▁gminie	-2230
cko	-2231
▁cena	-2232
▁(1)	-2233
▁pozwala	-2234
widu	-2235
▁zdję	-2236
▁księ	-2237
▁eksp	-2238
gó	-2239
▁chło	-2240
wić	-2241
/201	-2242
▁nic	-2243
▁powiecie	-2244
dzna	-2245
bur	-2246
▁zarówno	-2247
ft	-2248
mentów	-2249
mm	-2250
▁ceny	-2251
zje	-2252
zio	-2253
▁kupi	-2254
▁składa	-2255
pół	-2256
33	-2257
byt	-2258
▁dobry	-2259
▁swoim	-2260
tom	-2261
▁Ludzie	-2262
stry	-2263
towi	-2264
▁Sie	-2265
ph	-2266
▁Dom	-2267
▁Q	-2268
▁otwar	-2269
dli	-2270
▁św	-2271
ct	-2272
▁finans	-2273
▁?	-2274
▁rozg	-2275
lony	-2276
tt	-2277
▁wsze	-2278
▁dar	-2279
cena	-2280
▁Warszawie	-2281
▁mamy	-2282
pę	-2283
logia	-2284
US	-2285
▁zu	-2286
▁mężczy	-2287
▁potrzeb	-2288
jne	-2289
▁Mini	-2290
▁wygląda	-2291
Za	-2292
▁przysz	-2293
ord	-2294
▁ideal	-2295
▁skła	-2296
▁Cze	-2297
tyki	-2298
7)	-2299
zm	-2300
▁znajdzie	-2301
▁Tra	-2302
tna	-2303
rzej	-2304
▁napisa	-2305
jącą	-2306
ven	-2307
▁informacje	-2308
ksy	-2309
dnych	-2310
▁trwa	-2311
ps	-2312
▁najwięk	-2313
ang	-2314
jazd	-2315
▁taki	-2316
5)	-2317
6.	-2318
asa	-2319
ff	-2320
▁świę	-2321
▁niego	-2322
▁SP	-2323
▁swoich	-2324
tności	-2325
▁wiad	-2326
▁techni	-2327
bry	-2328
powiada	-2329
▁Świę	-2330
▁08	-2331
▁wspo	-2332
▁Micha	-2333
1)	-2334
▁zawodni	-2335
▁Cza	-2336
▁lotni	-2337
▁sma	-2338
▁jednym	-2339
▁sprzę	-2340
▁szuka	-2341
ńskim	-2342
cześnie	-2343
dać	-2344
▁stwo	-2345
▁terenie	-2346
▁administra	-2347
5.	-2348
▁położ	-2349
▁opa	-2350
cyjna	-2351
▁Por	-2352
▁możliwość	-2353
jedno	-2354
▁wykorzysta	-2355
▁1,	-2356
▁świad	-2357
sme	-2358
▁swojej	-2359
kol	-2360
▁kraj	-2361
wicz	-2362
▁pomoc	-2363
szczę	-2364
▁Może	-2365
▁Ste	-2366
▁naszych	-2367
▁pier	-2368
źć	-2369
AD	-2370
▁Bry	-2371
▁różnych	-2372
▁mieć	-2373
▁napraw	-2374
▁l	-2375
nne	-2376
owaniu	-2377
kcje	-2378
kół	-2379
interes	-2380
▁wielo	-2381
oria	-2382
▁kształ	-2383
▁Osta	-2384
▁Europe	-2385
▁Zie	-2386
▁przeprowa	-2387
▁drew	-2388
▁Zam	-2389
owymi	-2390
▁dalej	-2391
jska	-2392
("	-2393
▁kieru	-2394
leca	-2395
bierz	-2396
▁zapro	-2397
mencie	-2398
▁Ber	-2399
▁Pan	-2400
▁sklep	-2401
nomi	-2402
▁sprzedaż	-2403
▁niemie	-2404
niejsze	-2405
czaj	-2406
ed	-2407
met	-2408
▁tę	-2409
nictwo	-2410
▁powierzchni	-2411
wany	-2412
▁przedstawi	-2413
▁zoba	-2414
ght	-2415
możli	-2416
▁odpowiedni	-2417
LE	-2418
▁=	-2419
niach	-2420
ciem	-2421
niku	-2422
▁osią	-2423
▁techno	-2424
publikowa	-2425
▁zamów	-2426
sięcy	-2427
trum	-2428
▁Narod	-2429
pita	-2430
▁tur	-2431
▁(0	-2432
▁em	-2433
king	-2434
▁euro	-2435
▁kompu	-2436
mor	-2437
▁Bie	-2438
cił	-2439
7.	-2440
▁opie	-2441
cego	-2442
▁wyją	-2443
wiel	-2444
legło	-2445
▁powodu	-2446
▁obraz	-2447
tował	-2448
▁początku	-2449
▁rodzin	-2450
▁duży	-2451
dny	-2452
sił	-2453
-10	-2454
▁one	-2455
▁prawa	-2456
stki	-2457
▁razy	-2458
ktuali	-2459
▁przyja	-2460
cjon	-2461
▁Os	-2462
strz	-2463
▁czego	-2464
▁Histor	-2465
AP	-2466
78	-2467
▁zdjęcia	-2468
unda	-2469
▁wą	-2470
▁31	-2471
▁000	-2472
▁eko	-2473
▁Dob	-2474
▁świecie	-2475
▁Informa	-2476
▁prawo	-2477
▁rekla	-2478
▁mode	-2479
dzież	-2480
▁kategorii	-2481
▁materiał	-2482
rządza	-2483
▁Pola	-2484
▁kierow	-2485
▁przedsiębior	-2486
gdy	-2487
▁kata	-2488
▁gatu	-2489
krę	-2490
▁cał	-2491
rót	-2492
ścio	-2493
ll	-2494
▁pobli	-2495
tedy	-2496
▁cia	-2497
tkowa	-2498
▁wynosi	-2499
▁Stu	-2500
▁Di	-2501
▁indy	-2502
▁wcześniej	-2503
cjach	-2504
▁zim	-2505
▁możemy	-2506
nios	-2507
mer	-2508
zowa	-2509
stawia	-2510
nił	-2511
▁jeste	-2512
nuje	-2513
35	-2514
▁kolor	-2515
▁III	-2516
leż	-2517
▁dlatego	-2518
▁możesz	-2519
▁wyna	-2520
częście	-2521
▁ana	-2522
czeni	-2523
▁edy	-2524
jskiego	-2525
▁zostały	-2526
▁obiektu	-2527
▁Wła	-2528
toli	-2529
▁samym	-2530
▁Kie	-2531
▁śmier	-2532
▁Zmar	-2533
▁projekt	-2534
ws	-2535
lona	-2536
▁zapewnia	-2537
bel	-2538
▁dzien	-2539
nął	-2540
▁Chi	-2541
▁pisa	-2542
miny	-2543
praszamy	-2544
▁wzro	-2545
cenie	-2546
▁Op	-2547
bywa	-2548
▁archi	-2549
trza	-2550
para	-2551
rzyć	-2552
stka	-2553
▁wido	-2554
▁poka	-2555
▁ameryka	-2556
▁prywa	-2557
▁cięż	-2558
▁którą	-2559
▁producen	-2560
tkowe	-2561
lus	-2562
lika	-2563
wej	-2564
▁tek	-2565
▁zre	-2566
▁Car	-2567
znes	-2568
▁Piłkarze	-2569
3)	-2570
,00	-2571
▁telewi	-2572
▁Cy	-2573
tować	-2574
▁Rob	-2575
▁sieci	-2576
nienie	-2577
▁nowych	-2578
▁ochro	-2579
wych	-2580
dostęp	-2581
ak	-2582
▁swój	-2583
▁miała	-2584
▁przezna	-2585
9.	-2586
▁dziś	-2587
▁Następ	-2588
▁skład	-2589
▁przej	-2590
▁popular	-2591
▁cent	-2592
▁okoli	-2593
▁2007	-2594
▁naszym	-2595
▁blo	-2596
▁zdecy	-2597
▁Czę	-2598
widual	-2599
▁komple	-2600
▁80	-2601
▁natomiast	-2602
▁XX	-2603
▁papie	-2604
bor	-2605
chodni	-2606
yba	-2607
▁zainteres	-2608
iosen	-2609
.)	-2610
Ko	-2611
▁iż	-2612
NI	-2613
▁pok	-2614
▁chcia	-2615
żna	-2616
▁nauk	-2617
▁Pow	-2618
▁występu	-2619
laz	-2620
twier	-2621
tać	-2622
▁nieza	-2623
óż	-2624
ktycz	-2625
▁gó	-2626
OP	-2627
bieg	-2628
▁ona	-2629
▁każdego	-2630
▁wody	-2631
▁czeka	-2632
▁czyn	-2633
▁Ang	-2634
mawia	-2635
▁Tar	-2636
mail	-2637
▁coraz	-2638
▁usług	-2639
▁Według	-2640
▁podej	-2641
dna	-2642
stety	-2643
▁Gu	-2644
cem	-2645
▁Gro	-2646
▁zało	-2647
nictwa	-2648
jekt	-2649
▁online	-2650
dowanie	-2651
▁ponieważ	-2652
▁Mistrzo	-2653
chód	-2654
▁kolo	-2655
dowe	-2656
▁(201	-2657
▁projektu	-2658
vo	-2659
95	-2660
▁dużo	-2661
AK	-2662
▁Ros	-2663
__	-2664
▁kana	-2665
krai	-2666
ID	-2667
▁El	-2668
tnych	-2669
▁Sza	-2670
dzien	-2671
gia	-2672
▁dowo	-2673
▁numer	-2674
listy	-2675
bs	-2676
zien	-2677
▁produktów	-2678
▁Ki	-2679
44	-2680
ach	-2681
nal	-2682
EM	-2683
▁Niem	-2684
bym	-2685
▁rozwi	-2686
jął	-2687
▁drugi	-2688
▁poza	-2689
owiec	-2690
dzę	-2691
▁ST	-2692
▁Con	-2693
▁wygra	-2694
▁czu	-2695
CI	-2696
lone	-2697
▁zastos	-2698
fikowa	-2699
▁rodziny	-2700
dali	-2701
all	-2702
▁Centrum	-2703
▁psy	-2704
▁Szy	-2705
chowa	-2706
▁aktyw	-2707
EG	-2708
▁dwie	-2709
▁pozi	-2710
ią	-2711
lek	-2712
ens	-2713
torem	-2714
pię	-2715
▁Dru	-2716
▁przestrze	-2717
▁Stra	-2718
mp	-2719
▁obro	-2720
▁nowoczes	-2721
▁miejscowości	-2722
▁Twoje	-2723
▁Ślą	-2724
/0	-2725
▁kontro	-2726
cznik	-2727
▁Star	-2728
▁szybko	-2729
weł	-2730
▁wyłą	-2731
czona	-2732
EK	-2733
▁uwagę	-2734
▁suk	-2735
ryw	-2736
isia	-2737
▁przede	-2738
moc	-2739
▁“	-2740
▁kredy	-2741
gnię	-2742
▁potra	-2743
▁naprawdę	-2744
▁stron	-2745
lną	-2746
bą	-2747
▁myś	-2748
▁hand	-2749
ml	-2750
bio	-2751
▁ang	-2752
▁polski	-2753
▁Fir	-2754
▁twa	-2755
▁następnie	-2756
▁tar	-2757
▁współpra	-2758
▁gmina	-2759
▁naszego	-2760
▁centrum	-2761
▁kan	-2762
mysł	-2763
▁zad	-2764
▁trady	-2765
▁00	-2766
ning	-2767
▁Wszystkie	-2768
▁innymi	-2769
▁nor	-2770
66	-2771
ya	-2772
▁Nor	-2773
kowej	-2774
cieli	-2775
łowy	-2776
▁grupy	-2777
▁rodzaju	-2778
▁Ele	-2779
▁sprzedaży	-2780
▁bezpieczeń	-2781
▁pobliżu	-2782
▁koncer	-2783
▁Com	-2784
mnia	-2785
▁transp	-2786
▁Europy	-2787
chow	-2788
▁elektry	-2789
isiaj	-2790
▁nada	-2791
wego	-2792
▁siedzi	-2793
lacja	-2794
▁Więcej	-2795
▁cały	-2796
▁podstawie	-2797
port	-2798
▁apli	-2799
▁meto	-2800
▁Historia	-2801
gn	-2802
▁inwesty	-2803
nin	-2804
▁znaleźć	-2805
▁poziom	-2806
▁Ex	-2807
▁zaś	-2808
▁dniu	-2809
▁Krak	-2810
▁Gre	-2811
▁Jego	-2812
▁średni	-2813
lew	-2814
▁kontakt	-2815
▁Mon	-2816
▁Kla	-2817
▁rozwo	-2818
55	-2819
lega	-2820
▁Kul	-2821
▁organiza	-2822
isku	-2823
▁dam	-2824
▁istnie	-2825
▁Bez	-2826
szpa	-2827
▁Sport	-2828
dzone	-2829
▁Sh	-2830
cyjnego	-2831
rygina	-2832
▁'	-2833
▁Każ	-2834
teli	-2835
8.	-2836
ase	-2837
▁4.	-2838
▁Wol	-2839
▁minut	-2840
jny	-2841
sło	-2842
▁bran	-2843
▁Ofer	-2844
twór	-2845
▁Th	-2846
biega	-2847
▁tow	-2848
cyjnej	-2849
▁Win	-2850
▁ciągu	-2851
▁mię	-2852
▁miasto	-2853
▁pią	-2854
działa	-2855
tania	-2856
▁(200	-2857
▁wykorzy	-2858
▁rośli	-2859
▁okrę	-2860
raj	-2861
▁niezwy	-2862
▁jestem	-2863
ele	-2864
▁it	-2865
▁marki	-2866
▁Czar	-2867
▁2,	-2868
▁medy	-2869
▁usługi	-2870
Od	-2871
lety	-2872
zję	-2873
▁Kur	-2874
▁wes	-2875
ckich	-2876
▁masz	-2877
▁70	-2878
▁Spe	-2879
mię	-2880
▁nasze	-2881
9)	-2882
▁zakresie	-2883
▁promo	-2884
▁wysy	-2885
poś	-2886
▁zwycię	-2887
dami	-2888
▁dział	-2889
AW	-2890
▁part	-2891
▁powi	-2892
▁skrzy	-2893
▁Man	-2894
▁fran	-2895
kowych	-2896
▁oczy	-2897
▁Kata	-2898
dziela	-2899
▁Ten	-2900
▁Wsp	-2901
▁tys	-2902
▁klientów	-2903
óz	-2904
lowa	-2905
▁spół	-2906
▁gi	-2907
bil	-2908
czyk	-2909
raż	-2910
istory	-2911
▁chodzi	-2912
leg	-2913
Do	-2914
Pro	-2915
ciej	-2916
▁indywidual	-2917
▁lep	-2918
▁2000	-2919
▁Dar	-2920
spoli	-2921
▁opera	-2922
Ro	-2923
spi	-2924
▁nag	-2925
▁Tur	-2926
▁fe	-2927
▁proce	-2928
▁kwa	-2929
▁skute	-2930
ródło	-2931
85	-2932
▁gości	-2933
niesie	-2934
waj	-2935
▁Zjedno	-2936
8)	-2937
tch	-2938
▁0,	-2939
ruchomości	-2940
▁choć	-2941
spek	-2942
▁odwie	-2943
▁Piotr	-2944
▁stop	-2945
▁ran	-2946
▁Głów	-2947
cami	-2948
ńskich	-2949
▁opła	-2950
▁miejscowość	-2951
▁TV	-2952
ket	-2953
fina	-2954
▁2006	-2955
jskie	-2956
wor	-2957
▁zrobić	-2958
▁poprzez	-2959
77	-2960
fie	-2961
nos	-2962
▁profesjona	-2963
▁pracę	-2964
▁)	-2965
gazy	-2966
▁Kró	-2967
ownik	-2968
▁Czer	-2969
gno	-2970
▁najwyż	-2971
las	-2972
YW	-2973
▁Bardzo	-2974
.:	-2975
▁Hu	-2976
▁każdym	-2977
▁problem	-2978
bro	-2979
2020	-2980
▁Spraw	-2981
dom	-2982
przy	-2983
▁jedynie	-2984
▁ograni	-2985
▁uzna	-2986
▁urodzeni	-2987
▁miejsc	-2988
ortu	-2989
▁gór	-2990
▁gminy	-2991
▁Gór	-2992
▁eg	-2993
▁oce	-2994
▁kobiet	-2995
▁90	-2996
▁strona	-2997
▁Data	-2998
jecha	-2999
łki	-3000
▁nowy	-3001
▁Rady	-3002
▁zwięk	-3003
▁07	-3004
▁Samo	-3005
nków	-3006
żył	-3007
▁Kraków	-3008
nice	-3009
▁wtedy	-3010
NA	-3011
▁mili	-3012
▁olimpi	-3013
▁wygo	-3014
IL	-3015
▁możliwości	-3016
szek	-3017
▁Para	-3018
słany	-3019
chen	-3020
ill	-3021
▁Archi	-3022
▁adres	-3023
zwy	-3024
▁·	-3025
▁en	-3026
▁zamówie	-3027
wała	-3028
▁Puch	-3029
▁Miasta	-3030
dności	-3031
▁większo	-3032
strzy	-3033
pisu	-3034
west	-3035
▁mieście	-3036
▁swojego	-3037
▁względu	-3038
▁Lek	-3039
▁towarzy	-3040
▁gwaran	-3041
▁firma	-3042
sam	-3043
▁genera	-3044
owała	-3045
szedł	-3046
▁pomocą	-3047
▁Gó	-3048
▁kosme	-3049
dnienia	-3050
▁Zmarli	-3051
▁wojny	-3052
▁wystar	-3053
biu	-3054
▁Ban	-3055
▁pewno	-3056
dzień	-3057
▁ścia	-3058
**	-3059
▁krót	-3060
cym	-3061
ell	-3062
▁niektó	-3063
tków	-3064
▁wysokości	-3065
rob	-3066
▁godzin	-3067
▁program	-3068
▁gwia	-3069
tacja	-3070
▁Ameryka	-3071
racji	-3072
▁gu	-3073
CJ	-3074
tam	-3075
▁Jeste	-3076
▁czwar	-3077
▁klub	-3078
IG	-3079
piera	-3080
SP	-3081
▁zostanie	-3082
▁Mieszka	-3083
fun	-3084
ot	-3085
żem	-3086
36	-3087
▁500	-3088
▁produkt	-3089
▁województwie	-3090
▁Auto	-3091
piero	-3092
▁południ	-3093
car	-3094
▁związku	-3095
kształ	-3096
szty	-3097
wans	-3098
▁Jeżeli	-3099
----	-3100
OK	-3101
▁Toma	-3102
lepiej	-3103
-12	-3104
szyscy	-3105
In	-3106
▁działania	-3107
wały	-3108
▁występ	-3109
▁restaura	-3110
RZ	-3111
▁Ła	-3112
▁rozpoczę	-3113
duje	-3114
skach	-3115
owiem	-3116
iera	-3117
▁rzeczy	-3118
▁Jednak	-3119
▁przyzna	-3120
▁leka	-3121
cież	-3122
▁Gminy	-3123
liwości	-3124
▁zawar	-3125
▁biał	-3126
▁umożli	-3127
wskiego	-3128
▁zau	-3129
▁Aktual	-3130
organi	-3131
):	-3132
▁seria	-3133
▁trak	-3134
kade	-3135
tes	-3136
▁190	-3137
▁kwia	-3138
au	-3139
szech	-3140
▁środowi	-3141
▁obecnie	-3142
▁NA	-3143
▁mln	-3144
▁historii	-3145
żeń	-3146
▁chyba	-3147
rządu	-3148
ńscy	-3149
fy	-3150
▁przykład	-3151
lizacja	-3152
▁ką	-3153
▁pozwo	-3154
tali	-3155
int	-3156
▁koniec	-3157
▁ogól	-3158
rzwi	-3159
▁człon	-3160
cesoria	-3161
▁Miejscowo	-3162
mula	-3163
kacje	-3164
▁nauczy	-3165
gin	-3166
▁35	-3167
ling	-3168
obec	-3169
49	-3170
▁względem	-3171
prawa	-3172
▁Ol	-3173
▁nar	-3174
▁produkcji	-3175
WW	-3176
lić	-3177
▁jednej	-3178
-01	-3179
▁stand	-3180
▁Warto	-3181
▁zy	-3182
▁sezonie	-3183
▁ile	-3184
▁północ	-3185
46	-3186
▁stre	-3187
get	-3188
▁owo	-3189
twarza	-3190
▁dow	-3191
▁maszy	-3192
▁pierwsze	-3193
▁Gdań	-3194
ent	-3195
noś	-3196
▁bezpoś	-3197
▁$	-3198
ógł	-3199
76	-3200
▁skóry	-3201
▁produkty	-3202
tyku	-3203
pach	-3204
-11	-3205
▁Zna	-3206
▁zespołu	-3207
38	-3208
▁dziewczy	-3209
▁wykony	-3210
sach	-3211
przeda	-3212
▁komunika	-3213
▁wiem	-3214
niec	-3215
▁Tagi	-3216
▁mężczyz	-3217
▁dr	-3218
▁Per	-3219
▁poży	-3220
▁Powia	-3221
▁Odzna	-3222
▁poleca	-3223
jów	-3224
▁nocle	-3225
bliż	-3226
▁insta	-3227
wiek	-3228
▁usu	-3229
▁utwo	-3230
ległości	-3231
UT	-3232
▁możli	-3233
ściół	-3234
▁prawie	-3235
jach	-3236
▁proc	-3237
▁Lud	-3238
▁groma	-3239
▁Był	-3240
▁jedną	-3241
▁wszel	-3242
▁trafi	-3243
▁forma	-3244
▁obu	-3245
▁Lon	-3246
end	-3247
miary	-3248
:30	-3249
▁ocze	-3250
mb	-3251
▁Kod	-3252
dale	-3253
▁lecz	-3254
▁pomocy	-3255
){	-3256
▁dziecka	-3257
▁pomie	-3258
▁wielko	-3259
tysty	-3260
▁pierwszej	-3261
-03	-3262
ktury	-3263
▁lokalizacji	-3264
▁wej	-3265
III	-3266
▁według	-3267
▁Podczas	-3268
▁słowa	-3269
▁USA	-3270
tio	-3271
ies	-3272
▁drugiej	-3273
▁prezyden	-3274
▁przyj	-3275
▁trochę	-3276
▁wyra	-3277
son	-3278
nikiem	-3279
AG	-3280
ung	-3281
rebr	-3282
Re	-3283
??	-3284
▁Prof	-3285
▁bru	-3286
sion	-3287
zw	-3288
asi	-3289
nar	-3290
▁ho	-3291
ownika	-3292
▁obowiąz	-3293
▁ć	-3294
misji	-3295
wz	-3296
rąz	-3297
pospoli	-3298
▁Wysłany	-3299
wana	-3300
▁Nowy	-3301
▁pli	-3302
▁speł	-3303
▁Dzi	-3304
▁angiel	-3305
▁Ri	-3306
gach	-3307
▁końca	-3308
▁produk	-3309
▁łó	-3310
▁dobra	-3311
▁koszy	-3312
▁czerwo	-3313
▁zaję	-3314
Ba	-3315
▁ster	-3316
gląd	-3317
▁Ło	-3318
▁Kol	-3319
▁eta	-3320
▁opinie	-3321
39	-3322
▁Biał	-3323
▁Pół	-3324
▁obsz	-3325
wym	-3326
▁codzien	-3327
▁rzecz	-3328
leni	-3329
▁orygina	-3330
śmie	-3331
▁całkowi	-3332
▁Wrocław	-3333
▁dane	-3334
czął	-3335
▁budowla	-3336
PL	-3337
▁fizy	-3338
orys	-3339
▁interes	-3340
fii	-3341
▁proces	-3342
▁ogrom	-3343
▁podróż	-3344
ame	-3345
▁Zło	-3346
lta	-3347
tyk	-3348
▁wsi	-3349
▁her	-3350
▁Ter	-3351
▁Wal	-3352
mow	-3353
▁zmiany	-3354
Mo	-3355
nim	-3356
▁Igrzy	-3357
OB	-3358
▁robo	-3359
▁choro	-3360
▁Blu	-3361
▁uch	-3362
kowanie	-3363
▁2004	-3364
szyć	-3365
▁sobą	-3366
rócz	-3367
omość	-3368
▁drze	-3369
rzeń	-3370
▁Uniwersytetu	-3371
▁jednego	-3372
lowe	-3373
▁pojawi	-3374
▁okresie	-3375
▁książki	-3376
prawia	-3377
▁isto	-3378
▁Mło	-3379
▁ktoś	-3380
▁ponow	-3381
kolwiek	-3382
zeum	-3383
form	-3384
▁porów	-3385
blo	-3386
▁2005	-3387
szto	-3388
ree	-3389
-05	-3390
krotnie	-3391
▁meczu	-3392
▁nadzie	-3393
▁interne	-3394
▁lepiej	-3395
torzy	-3396
▁hrab	-3397
▁XV	-3398
ądź	-3399
koła	-3400
▁przyczy	-3401
up	-3402
▁tygodni	-3403
▁IN	-3404
ąb	-3405
dzeń	-3406
KS	-3407
▁dia	-3408
torów	-3409
▁prostu	-3410
▁oznacza	-3411
▁prawdzi	-3412
▁służ	-3413
niejszych	-3414
▁Sty	-3415
▁turysty	-3416
▁bla	-3417
▁Stani	-3418
xx	-3419
▁okreś	-3420
▁Her	-3421
lami	-3422
roz	-3423
▁organiz	-3424
▁Bla	-3425
▁bio	-3426
▁pogo	-3427
owska	-3428
▁ślub	-3429
rona	-3430
▁zakup	-3431
▁przewodni	-3432
fikacji	-3433
-02	-3434
chów	-3435
▁Nowo	-3436
▁wra	-3437
▁uli	-3438
▁j	-3439
cyk	-3440
żek	-3441
▁uczni	-3442
▁odkry	-3443
▁stronę	-3444
sława	-3445
wem	-3446
Ka	-3447
ina	-3448
37	-3449
▁wizy	-3450
nien	-3451
▁nigdy	-3452
▁tłuma	-3453
stości	-3454
▁trzech	-3455
podob	-3456
▁przyjem	-3457
▁tempera	-3458
▁konstru	-3459
▁chę	-3460
syw	-3461
▁Między	-3462
czność	-3463
-06	-3464
rzem	-3465
-04	-3466
▁Odpowie	-3467
▁Super	-3468
ownicy	-3469
knię	-3470
mowe	-3471
▁Bud	-3472
▁kg	-3473
duka	-3474
▁Kolej	-3475
▁Ap	-3476
▁każdej	-3477
teria	-3478
▁mało	-3479
▁ciała	-3480
żd	-3481
▁spę	-3482
▁potem	-3483
Nie	-3484
mart	-3485
▁Katowi	-3486
dzony	-3487
▁oś	-3488
-07	-3489
gła	-3490
▁sub	-3491
Pa	-3492
NE	-3493
tycznych	-3494
34	-3495
dyn	-3496
kowania	-3497
▁wartości	-3498
▁wyj	-3499
▁Kiedy	-3500
▁strze	-3501
▁Joh	-3502
pon	-3503
▁linii	-3504
▁Nowa	-3505
▁Zes	-3506
▁PL	-3507
▁bry	-3508
żnej	-3509
▁wymia	-3510
▁jas	-3511
ciorys	-3512
▁try	-3513
▁Najlep	-3514
▁krzy	-3515
▁Książ	-3516
▁Obec	-3517
▁łazien	-3518
▁model	-3519
daj	-3520
▁45	-3521
▁najważ	-3522
▁duże	-3523
sek	-3524
bum	-3525
▁3,	-3526
▁Niemie	-3527
▁5.	-3528
▁Uczest	-3529
▁fan	-3530
▁tyle	-3531
lot	-3532
▁Publi	-3533
▁anty	-3534
▁Zosta	-3535
▁Qu	-3536
kładu	-3537
▁zespół	-3538
szczenia	-3539
rwi	-3540
km	-3541
▁przedmio	-3542
wła	-3543
▁stru	-3544
▁szkoły	-3545
▁Tele	-3546
▁dość	-3547
▁mógł	-3548
czym	-3549
ÓW	-3550
▁wysokiej	-3551
▁Olimpi	-3552
towane	-3553
-08	-3554
▁dokona	-3555
▁magazy	-3556
▁trakcie	-3557
▁konsu	-3558
▁Mor	-3559
żone	-3560
▁komputer	-3561
prawy	-3562
▁Życiorys	-3563
klu	-3564
▁DO	-3565
▁zatru	-3566
▁wspar	-3567
▁twór	-3568
▁bram	-3569
ine	-3570
▁polskich	-3571
▁wynika	-3572
▁Aby	-3573
▁pracowników	-3574
-09	-3575
▁odpowiedzia	-3576
▁okaza	-3577
▁01	-3578
ścioła	-3579
▁litera	-3580
▁głę	-3581
▁nagro	-3582
cio	-3583
96	-3584
pier	-3585
wka	-3586
zwa	-3587
stawy	-3588
▁biznes	-3589
łnie	-3590
▁głównie	-3591
▁jedna	-3592
łat	-3593
▁poje	-3594
▁Jez	-3595
▁cu	-3596
towany	-3597
▁wypad	-3598
▁programu	-3599
▁Jana	-3600
▁stylu	-3601
IM	-3602
▁Trze	-3603
żony	-3604
▁Ukrai	-3605
▁skorzysta	-3606
grze	-3607
str	-3608
śle	-3609
97	-3610
▁Księ	-3611
▁specjali	-3612
▁instru	-3613
kier	-3614
tyczny	-3615
sowe	-3616
▁us	-3617
86	-3618
ntów	-3619
▁sytuacji	-3620
zowie	-3621
dyna	-3622
book	-3623
wną	-3624
towania	-3625
▁mecz	-3626
gół	-3627
PS	-3628
undu	-3629
▁międzynarod	-3630
kowo	-3631
▁wyja	-3632
▁Tym	-3633
▁zarządza	-3634
▁utw	-3635
▁sła	-3636
mienie	-3637
▁pracu	-3638
▁województwa	-3639
▁Mam	-3640
ówczas	-3641
▁postaci	-3642
kowane	-3643
ić	-3644
▁zagra	-3645
rad	-3646
!!!	-3647
▁Cha	-3648
styczne	-3649
▁dal	-3650
▁mor	-3651
chani	-3652
▁zabezpie	-3653
▁pomiędzy	-3654
▁oprac	-3655
▁dopiero	-3656
rezes	-3657
▁boga	-3658
ds	-3659
▁przypo	-3660
▁Wę	-3661
ściach	-3662
▁pozycji	-3663
ley	-3664
▁wyróż	-3665
tz	-3666
▁razie	-3667
zują	-3668
▁06	-3669
▁aktor	-3670
▁wojs	-3671
▁zgło	-3672
wiają	-3673
czeniem	-3674
▁wnios	-3675
▁warszta	-3676
▁Świata	-3677
▁!	-3678
▁Order	-3679
▁nowego	-3680
▁piłka	-3681
▁brak	-3682
▁~	-3683
▁zostało	-3684
▁zmienia	-3685
▁charaktery	-3686
▁odda	-3687
▁chwili	-3688
mos	-3689
▁działalności	-3690
mato	-3691
dzieży	-3692
▁francu	-3693
▁propozy	-3694
▁pia	-3695
▁Cię	-3696
EC	-3697
▁znajdują	-3698
▁is	-3699
▁XI	-3700
▁narod	-3701
▁Polscy	-3702
łek	-3703
szło	-3704
▁Ponad	-3705
▁świą	-3706
▁typ	-3707
tual	-3708
▁pozio	-3709
pas	-3710
▁Instytu	-3711
łeś	-3712
▁serii	-3713
▁ur	-3714
ls	-3715
plo	-3716
▁Francji	-3717
RO	-3718
fry	-3719
▁stara	-3720
▁osobi	-3721
niżej	-3722
▁Karo	-3723
▁osie	-3724
▁Czytaj	-3725
kowski	-3726
towych	-3727
wach	-3728
częściej	-3729
▁plan	-3730
▁powiedział	-3731
▁odpowiada	-3732
pełnie	-3733
dziny	-3734
▁bowiem	-3735
▁oj	-3736
▁całej	-3737
▁sły	-3738
47	-3739
letni	-3740
▁ło	-3741
▁dzia	-3742
32	-3743
brze	-3744
▁potwier	-3745
▁pierwszym	-3746
▁najnow	-3747
orą	-3748
▁uczestni	-3749
ńca	-3750
kcie	-3751
▁dotyczące	-3752
▁Tran	-3753
koj	-3754
▁super	-3755
▁nieco	-3756
arka	-3757
▁zestaw	-3758
▁badania	-3759
▁podzie	-3760
▁zbior	-3761
▁wymie	-3762
dzki	-3763
▁pytanie	-3764
lak	-3765
▁metrów	-3766
▁Mag	-3767
▁Aleks	-3768
▁urządzenia	-3769
▁zaczyna	-3770
▁reje	-3771
▁Krzyszto	-3772
▁(0)	-3773
▁narzę	-3774
▁sobo	-3775
▁podkre	-3776
▁Gi	-3777
suń	-3778
des	-3779
▁przewo	-3780
tto	-3781
▁poświę	-3782
▁oto	-3783
▁Har	-3784
▁systemu	-3785
▁Już	-3786
dnik	-3787
▁zgodnie	-3788
źni	-3789
niż	-3790
ww	-3791
▁rek	-3792
▁nią	-3793
▁(5	-3794
▁Przez	-3795
▁zapy	-3796
▁nieruchomości	-3797
niesi	-3798
▁di	-3799
▁oglą	-3800
▁wewnętrz	-3801
▁history	-3802
▁sia	-3803
":	-3804
▁rozwoju	-3805
mią	-3806
UM	-3807
▁okazji	-3808
▁związane	-3809
ress	-3810
▁ple	-3811
▁nasz	-3812
▁Ws	-3813
▁dostar	-3814
biór	-3815
óze	-3816
hater	-3817
▁dziecko	-3818
giem	-3819
▁szczególnie	-3820
ZY	-3821
enu	-3822
▁odci	-3823
▁Foto	-3824
▁On	-3825
▁wersji	-3826
▁Wor	-3827
▁opar	-3828
unku	-3829
▁należa	-3830
▁zobaczyć	-3831
kuren	-3832
▁pacje	-3833
▁włą	-3834
▁Andrzej	-3835
ięku	-3836
wało	-3837
▁wyświet	-3838
▁@	-3839
▁Sch	-3840
▁Bel	-3841
▁New	-3842
jaw	-3843
▁Słu	-3844
▁pró	-3845
TA	-3846
▁budynku	-3847
▁chi	-3848
▁spotkania	-3849
▁Napisa	-3850
▁utrzyma	-3851
▁trans	-3852
▁czyta	-3853
owskiego	-3854
▁cer	-3855
▁gdyż	-3856
▁uni	-3857
wają	-3858
rodzenia	-3859
▁światowej	-3860
wiam	-3861
dowych	-3862
▁ludzie	-3863
pień	-3864
łowi	-3865
lie	-3866
function	-3867
▁kamie	-3868
zów	-3869
dle	-3870
dziła	-3871
▁wyż	-3872
OŚ	-3873
rzędu	-3874
▁Kam	-3875
cyjnym	-3876
tkę	-3877
tnia	-3878
▁recenzji	-3879
83	-3880
▁Dłu	-3881
cal	-3882
ciele	-3883
var	-3884
serwa	-3885
▁grze	-3886
NY	-3887
▁wybrać	-3888
▁Forum	-3889
usza	-3890
▁far	-3891
stwach	-3892
▁aktual	-3893
▁daje	-3894
▁konferen	-3895
suje	-3896
▁Tre	-3897
ktura	-3898
▁roze	-3899
dnego	-3900
▁Łó	-3901
▁kupić	-3902
chodniej	-3903
nione	-3904
▁Let	-3905
89	-3906
pisz	-3907
▁dostępne	-3908
▁myśli	-3909
cro	-3910
▁czasem	-3911
pina	-3912
bili	-3913
ciąga	-3914
▁Miejscowości	-3915
anna	-3916
dr	-3917
▁Poz	-3918
▁wró	-3919
▁akcji	-3920
▁komfor	-3921
▁odbę	-3922
zem	-3923
▁(4	-3924
▁rezer	-3925
▁Krakowie	-3926
▁che	-3927
▁Ź	-3928
▁Ciebie	-3929
cyjnie	-3930
▁powa	-3931
▁rower	-3932
▁najmniej	-3933
ciaż	-3934
▁alko	-3935
▁ponownie	-3936
))	-3937
▁dź	-3938
gaż	-3939
▁takiego	-3940
▁36	-3941
▁praca	-3942
▁Poprze	-3943
▁śmie	-3944
▁mą	-3945
woła	-3946
▁am	-3947
▁«	-3948
▁Józe	-3949
▁Teraz	-3950
▁drzwi	-3951
▁grafi	-3952
▁win	-3953
▁Dlatego	-3954
▁kontra	-3955
▁czło	-3956
dopodob	-3957
dgo	-3958
Li	-3959
siej	-3960
▁150	-3961
▁piłkar	-3962
▁należą	-3963
▁prę	-3964
▁końcu	-3965
SI	-3966
▁jednocześnie	-3967
▁telefon	-3968
▁zi	-3969
▁Anna	-3970
▁wyszuki	-3971
▁wia	-3972
enta	-3973
tnej	-3974
▁Lubli	-3975
-5	-3976
▁Pri	-3977
owaniem	-3978
▁miesięcy	-3979
▁→	-3980
▁szczy	-3981
▁zbyt	-3982
▁filmy	-3983
kora	-3984
rektor	-3985
▁artykuł	-3986
▁Bę	-3987
dan	-3988
▁różne	-3989
▁Praca	-3990
dować	-3991
zz	-3992
szczenie	-3993
niami	-3994
zdu	-3995
wska	-3996
łach	-3997
▁En	-3998
▁ust	-3999
chem	-4000
▁ukoń	-4001
▁4,	-4002
▁współpracy	-4003
▁jeżeli	-4004
onów	-4005
pki	-4006
▁wier	-4007
mę	-4008
To	-4009
▁Powie	-4010
▁bezpośredni	-4011
▁drogi	-4012
▁niewiel	-4013
▁oficja	-4014
▁05	-4015
ille	-4016
▁wystąpi	-4017
▁cel	-4018
▁potrzebu	-4019
▁300	-4020
87	-4021
▁Kobie	-4022
▁Polskiego	-4023
▁ćwi	-4024
skiem	-4025
▁Znaj	-4026
dry	-4027
▁tworzy	-4028
▁podło	-4029
67	-4030
▁pomaga	-4031
IP	-4032
óc	-4033
kładnie	-4034
▁odpowiedzi	-4035
▁dzisiaj	-4036
kować	-4037
▁‹	-4038
▁kolejne	-4039
▁zak	-4040
bal	-4041
gla	-4042
czno	-4043
nder	-4044
▁warsza	-4045
▁2003	-4046
produ	-4047
▁ulicy	-4048
▁potrafi	-4049
tre	-4050
wszy	-4051
lip	-4052
▁wyzna	-4053
▁Bur	-4054
▁Tomasz	-4055
▁ksią	-4056
▁Opis	-4057
▁wspania	-4058
▁Wyso	-4059
▁dodatk	-4060
kowym	-4061
que	-4062
niony	-4063
ciąg	-4064
ciela	-4065
▁Uro	-4066
▁życiu	-4067
▁Oś	-4068
▁takim	-4069
▁Dol	-4070
▁wyd	-4071
-4	-4072
czba	-4073
▁Zjednoczonych	-4074
▁oczeki	-4075
▁Adam	-4076
▁Sklep	-4077
strowa	-4078
kowego	-4079
ono	-4080
▁zdo	-4081
▁śmierci	-4082
▁tor	-4083
▁2001	-4084
wnątrz	-4085
▁Zapraszamy	-4086
wne	-4087
und	-4088
▁godziny	-4089
▁atrak	-4090
▁drewnia	-4091
▁mistrzostw	-4092
▁Często	-4093
ujemy	-4094
towej	-4095
▁Rober	-4096
pełnia	-4097
dows	-4098
▁biur	-4099
▁czemu	-4100
ują	-4101
▁premie	-4102
▁filmu	-4103
▁wybiera	-4104
▁Im	-4105
bin	-4106
rzego	-4107
ctwa	-4108
arki	-4109
▁bądź	-4110
▁włosów	-4111
dzeniu	-4112
▁(2)	-4113
▁byli	-4114
▁dra	-4115
jęcie	-4116
▁niepo	-4117
zyj	-4118
▁Organi	-4119
▁jakość	-4120
gre	-4121
▁wycie	-4122
góły	-4123
łowe	-4124
▁aktuali	-4125
.2018	-4126
▁wnę	-4127
otele	-4128
owano	-4129
▁uważa	-4130
▁szt	-4131
▁Poznań	-4132
▁Regi	-4133
▁kobiety	-4134
▁Związ	-4135
lum	-4136
sami	-4137
UL	-4138
▁Mę	-4139
▁Sko	-4140
▁żo	-4141
▁are	-4142
▁IV	-4143
▁he	-4144
▁piosen	-4145
▁ruchu	-4146
▁rozwija	-4147
owcy	-4148
▁(6	-4149
▁tzw	-4150
tus	-4151
▁kuchni	-4152
strza	-4153
▁obsługi	-4154
fra	-4155
▁jazdy	-4156
deł	-4157
jen	-4158
ham	-4159
▁człowieka	-4160
▁Was	-4161
tkiem	-4162
▁jaką	-4163
▁dostaw	-4164
ther	-4165
lacje	-4166
▁Sztu	-4167
▁Ek	-4168
enty	-4169
Bo	-4170
▁chcą	-4171
waniu	-4172
▁konkuren	-4173
sługi	-4174
ciąż	-4175
▁Ak	-4176
▁powinien	-4177
100	-4178
graf	-4179
...]	-4180
▁umieję	-4181
imna	-4182
▁zao	-4183
▁lubi	-4184
▁ważne	-4185
▁położona	-4186
con	-4187
ys	-4188
▁sym	-4189
93	-4190
▁ogłoszenia	-4191
▁Sze	-4192
żyser	-4193
olwen	-4194
kura	-4195
kin	-4196
rip	-4197
▁postęp	-4198
▁pę	-4199
▁}	-4200
▁elektroni	-4201
wan	-4202
▁‹›	-4203
▁bisku	-4204
logu	-4205
chowy	-4206
"),	-4207
▁Bro	-4208
RE	-4209
▁bezpła	-4210
zda	-4211
▁błę	-4212
▁Wojewódz	-4213
lis	-4214
▁zdobył	-4215
bsolwen	-4216
Odpowie	-4217
▁spotkanie	-4218
pienia	-4219
▁młody	-4220
ogle	-4221
▁obwo	-4222
wil	-4223
▁kwo	-4224
▁pasa	-4225
KO	-4226
czono	-4227
tycznej	-4228
▁monta	-4229
▁niezbę	-4230
▁wybo	-4231
▁przedstawia	-4232
▁hy	-4233
OWE	-4234
▁Maj	-4235
▁sposob	-4236
▁znajdziesz	-4237
▁Ti	-4238
▁Iz	-4239
tyfika	-4240
▁zabu	-4241
▁Szu	-4242
▁najbliż	-4243
43	-4244
▁katalog	-4245
▁pełni	-4246
▁pani	-4247
▁Temat	-4248
bów	-4249
towanie	-4250
▁wszyscy	-4251
▁impre	-4252
styka	-4253
szt	-4254
▁powy	-4255
▁1990	-4256
▁tema	-4257
▁najlepiej	-4258
ingu	-4259
▁02	-4260
tii	-4261
▁delika	-4262
▁Gar	-4263
▁gar	-4264
▁turnie	-4265
▁Poleca	-4266
▁rosy	-4267
tak	-4268
▁ogro	-4269
liwość	-4270
▁będziemy	-4271
rowin	-4272
▁Firma	-4273
wienia	-4274
landii	-4275
▁zorgani	-4276
AB	-4277
jscy	-4278
▁zmar	-4279
▁ubezpie	-4280
▁tytuł	-4281
▁Ostatni	-4282
▁Zas	-4283
▁prowadzi	-4284
stość	-4285
▁zagro	-4286
dla	-4287
▁Home	-4288
▁remon	-4289
▁niedzie	-4290
▁mieszkania	-4291
▁studen	-4292
▁znacznie	-4293
sch	-4294
▁jesie	-4295
▁Ofi	-4296
▁pocz	-4297
▁oferuje	-4298
pow	-4299
▁kup	-4300
źnie	-4301
▁materia	-4302
▁dowie	-4303
▁umożliwia	-4304
▁taka	-4305
▁prace	-4306
▁mogę	-4307
▁2002	-4308
▁bia	-4309
owali	-4310
areje	-4311
▁Park	-4312
▁klucz	-4313
OWY	-4314
pisów	-4315
▁art	-4316
czkę	-4317
lec	-4318
▁PO	-4319
zne	-4320
▁Che	-4321
▁łatwo	-4322
▁składni	-4323
▁skar	-4324
era	-4325
trzymy	-4326
▁dziedzi	-4327
dzeniem	-4328
▁zwró	-4329
▁32	-4330
▁ulu	-4331
rand	-4332
▁Wydaw	-4333
▁Obecnie	-4334
▁th	-4335
▁mikro	-4336
:)	-4337
szczegól	-4338
chody	-4339
tanie	-4340
licza	-4341
▁Fina	-4342
pospolitej	-4343
▁zabra	-4344
▁Kor	-4345
▁jakim	-4346
▁ilość	-4347
jesz	-4348
▁cenie	-4349
▁konkre	-4350
▁oczywiście	-4351
rodek	-4352
▁organizacji	-4353
▁;)	-4354
▁zdrowia	-4355
▁mogli	-4356
▁zaraz	-4357
tnego	-4358
▁kolory	-4359
▁funkcjona	-4360
stek	-4361
▁Kraj	-4362
▁noc	-4363
▁słucha	-4364
▁PC	-4365
▁Rzeczy	-4366
▁Akade	-4367
▁mężczyzn	-4368
▁des	-4369
▁imp	-4370
cznymi	-4371
▁03	-4372
▁studia	-4373
▁post	-4374
▁śre	-4375
▁vi	-4376
▁osoba	-4377
▁ds	-4378
▁zę	-4379
▁Kry	-4380
czyn	-4381
cs	-4382
▁pielę	-4383
▁75	-4384
▁syn	-4385
ciar	-4386
▁chcesz	-4387
94	-4388
▁Muzy	-4389
żer	-4390
▁FC	-4391
],	-4392
▁jakiś	-4393
▁niezwykle	-4394
ale	-4395
▁długości	-4396
▁Polskiej	-4397
dnej	-4398
▁kor	-4399
ksyma	-4400
owicz	-4401
asy	-4402
▁bro	-4403
▁psycho	-4404
▁termi	-4405
TM	-4406
▁całym	-4407
▁6.	-4408
▁as	-4409
ance	-4410
▁pewnością	-4411
RR	-4412
▁wykorzysty	-4413
▁drodze	-4414
są	-4415
▁Muzeum	-4416
▁kwest	-4417
▁zaa	-4418
Je	-4419
▁nieu	-4420
Co	-4421
▁żół	-4422
▁Odznaczeni	-4423
▁pomi	-4424
▁korzy	-4425
("#	-4426
▁hrabstwie	-4427
ściu	-4428
▁Tea	-4429
▁stwier	-4430
▁prakty	-4431
▁szczę	-4432
iusz	-4433
SS	-4434
▁Rek	-4435
xy	-4436
▁twarzy	-4437
▁04	-4438
▁telef	-4439
▁Olimpijskich	-4440
kierowa	-4441
▁materiałów	-4442
▁zajmu	-4443
dziel	-4444
▁pienią	-4445
▁uroczy	-4446
▁okres	-4447
▁wyniki	-4448
▁zdjęć	-4449
set	-4450
▁Paweł	-4451
▁sezon	-4452
▁znalaz	-4453
▁Katego	-4454
▁wówczas	-4455
win	-4456
▁poziomie	-4457
▁energii	-4458
Prze	-4459
Ta	-4460
▁400	-4461
▁wyłącznie	-4462
▁Bru	-4463
tychczas	-4464
dium	-4465
▁Każdy	-4466
▁porówna	-4467
▁stan	-4468
▁Obie	-4469
żności	-4470
▁Dro	-4471
ZW	-4472
▁złotych	-4473
niejszy	-4474
▁opublikowa	-4475
▁następującego	-4476
leria	-4477
▁zatrzyma	-4478
obi	-4479
obo	-4480
▁wice	-4481
▁realizacji	-4482
▁Można	-4483
dyda	-4484
KIE	-4485
owiąza	-4486
91	-4487
mara	-4488
▁media	-4489
▁używa	-4490
84	-4491
▁bezpieczeństwa	-4492
31	-4493
▁ły	-4494
Sz	-4495
nis	-4496
▁Mary	-4497
▁regionie	-4498
tyczna	-4499
ech	-4500
▁ozd	-4501
ban	-4502
cina	-4503
rych	-4504
nel	-4505
▁środków	-4506
▁serwis	-4507
nen	-4508
pen	-4509
dki	-4510
▁Kultury	-4511
rzym	-4512
▁Krzysztof	-4513
łaszcza	-4514
▁lekko	-4515
▁sur	-4516
▁kolejny	-4517
▁charakter	-4518
▁pojem	-4519
▁Wyda	-4520
▁rozegra	-4521
▁Mer	-4522
▁Państwa	-4523
ela	-4524
▁Hen	-4525
▁Liczba	-4526
▁poch	-4527
dzię	-4528
IK	-4529
▁Air	-4530
▁grup	-4531
▁ciem	-4532
▁[...]	-4533
OG	-4534
▁Aktualności	-4535
▁całego	-4536
kać	-4537
▁Festi	-4538
▁osa	-4539
fr	-4540
▁Numer	-4541
▁czter	-4542
▁Jedno	-4543
▁pis	-4544
rząt	-4545
twem	-4546
lam	-4547
fu	-4548
▁tea	-4549
ezer	-4550
▁nimi	-4551
▁soli	-4552
▁wybór	-4553
▁formie	-4554
▁rzeczywi	-4555
DZ	-4556
▁Kariera	-4557
▁Wojcie	-4558
▁Sło	-4559
▁niebie	-4560
gne	-4561
rzuca	-4562
dniego	-4563
64	-4564
dnym	-4565
▁ofercie	-4566
▁doty	-4567
hu	-4568
▁stanu	-4569
▁zada	-4570
logiczne	-4571
rusza	-4572
widł	-4573
▁gmin	-4574
▁takiej	-4575
▁polskiej	-4576
▁najlepsze	-4577
▁Am	-4578
▁Minister	-4579
nich	-4580
▁Col	-4581
talu	-4582
gier	-4583
▁ustawy	-4584
▁obo	-4585
▁poniedział	-4586
gs	-4587
▁praktycz	-4588
czer	-4589
▁Michał	-4590
▁dniach	-4591
tnym	-4592
żne	-4593
▁WY	-4594
piec	-4595
kiewicz	-4596
▁najlepszych	-4597
▁zamknię	-4598
▁kolei	-4599
▁zwro	-4600
wiec	-4601
▁brąz	-4602
Usuń	-4603
GB	-4604
▁tą	-4605
▁zas	-4606
92	-4607
dka	-4608
▁europe	-4609
CD	-4610
▁Maria	-4611
▁zaczę	-4612
▁wys	-4613
▁podró	-4614
sić	-4615
▁Jako	-4616
▁Py	-4617
▁nadal	-4618
wek	-4619
▁CD	-4620
▁5,	-4621
ans	-4622
dera	-4623
▁konty	-4624
owice	-4625
▁użytkowników	-4626
▁umowy	-4627
ccy	-4628
▁samochodów	-4629
▁mocy	-4630
▁nami	-4631
die	-4632
▁cór	-4633
dzonych	-4634
▁wzię	-4635
żar	-4636
▁wyniku	-4637
▁przeczy	-4638
▁medal	-4639
▁You	-4640
twy	-4641
dko	-4642
eli	-4643
ori	-4644
nicja	-4645
▁Opublikowa	-4646
▁Tom	-4647
▁zni	-4648
▁zostać	-4649
▁głos	-4650
szcie	-4651
shi	-4652
bumy	-4653
74	-4654
▁Źródło	-4655
jskim	-4656
czem	-4657
▁ofert	-4658
zur	-4659
▁SK	-4660
▁igrzy	-4661
▁tka	-4662
▁Południ	-4663
owości	-4664
▁dokładnie	-4665
▁Informacje	-4666
▁zle	-4667
▁ciep	-4668
czoraj	-4669
▁blisko	-4670
▁gę	-4671
▁forum	-4672
▁udostęp	-4673
▁ab	-4674
robi	-4675
brania	-4676
▁rozgryw	-4677
▁Loka	-4678
▁pienię	-4679
szam	-4680
▁oku	-4681
▁Pas	-4682
▁dostępny	-4683
▁instytu	-4684
▁Uży	-4685
COM	-4686
zon	-4687
towarzy	-4688
▁policja	-4689
▁HD	-4690
-200	-4691
Ar	-4692
▁Ke	-4693
EST	-4694
▁odpor	-4695
kiety	-4696
stawa	-4697
▁pal	-4698
▁prowadzą	-4699
▁pytania	-4700
▁wobec	-4701
owców	-4702
▁samego	-4703
Pol	-4704
sc	-4705
▁ucie	-4706
kiet	-4707
▁pozytyw	-4708
UN	-4709
stych	-4710
▁wil	-4711
▁1975	-4712
▁Lista	-4713
▁ście	-4714
▁dyspo	-4715
▁bibli	-4716
tok	-4717
▁At	-4718
kłady	-4719
rzeć	-4720
▁szczegół	-4721
▁raczej	-4722
tywy	-4723
▁poło	-4724
tną	-4725
▁{	-4726
▁inten	-4727
tarz	-4728
▁Ponadto	-4729
obra	-4730
wienie	-4731
nda	-4732
▁Wszystko	-4733
▁długi	-4734
▁działalność	-4735
▁Pia	-4736
▁Uczestnicy	-4737
sted	-4738
▁wspiera	-4739
▁sama	-4740
▁Wyświet	-4741
▁olej	-4742
czący	-4743
mite	-4744
▁koszyka	-4745
▁mimo	-4746
▁oba	-4747
xi	-4748
▁przemy	-4749
▁Anto	-4750
▁roślin	-4751
TV	-4752
więcej	-4753
Le	-4754
▁wio	-4755
▁otrzymał	-4756
▁podpisa	-4757
lił	-4758
Ch	-4759
rzec	-4760
▁Słowa	-4761
▁zadowo	-4762
▁Bydgo	-4763
▁ks	-4764
torek	-4765
UB	-4766
▁nowej	-4767
▁album	-4768
▁sklepie	-4769
▁języka	-4770
cyjną	-4771
neto	-4772
▁medali	-4773
▁Mal	-4774
▁polega	-4775
gowe	-4776
▁odbędzie	-4777
▁Specja	-4778
▁Sprzeda	-4779
▁Kana	-4780
▁opinii	-4781
▁ostatnich	-4782
▁System	-4783
Mi	-4784
▁sprawia	-4785
▁parafii	-4786
rzył	-4787
dor	-4788
▁jesteśmy	-4789
▁zapozna	-4790
▁7.	-4791
▁Bio	-4792
▁Projekt	-4793
▁krę	-4794
▁najczęściej	-4795
niejsza	-4796
▁Die	-4797
kacja	-4798
kola	-4799
▁Dodaj	-4800
czar	-4801
▁Ed	-4802
▁Is	-4803
▁Nowe	-4804
▁com	-4805
▁udało	-4806
use	-4807
krywa	-4808
▁cztery	-4809
▁Franci	-4810
▁państw	-4811
▁śpie	-4812
▁wciąż	-4813
▁ina	-4814
▁pokaza	-4815
▁mój	-4816
▁bal	-4817
▁poin	-4818
▁mle	-4819
cone	-4820
▁liczyła	-4821
▁with	-4822
▁producenta	-4823
▁Współ	-4824
wiu	-4825
▁dziecię	-4826
▁Pani	-4827
▁wydarzenia	-4828
ścić	-4829
▁mus	-4830
▁elegan	-4831
68	-4832
▁Pamię	-4833
▁listy	-4834
▁rozmiar	-4835
▁itp	-4836
▁Film	-4837
zę	-4838
żynie	-4839
▁zupełnie	-4840
▁opro	-4841
pto	-4842
▁Stowarzy	-4843
mil	-4844
noszą	-4845
nawia	-4846
].	-4847
tional	-4848
▁Podstaw	-4849
terze	-4850
▁szpita	-4851
.2017	-4852
▁źród	-4853
▁głębo	-4854
▁ręka	-4855
pią	-4856
▁Jor	-4857
liny	-4858
▁pocho	-4859
SB	-4860
dzona	-4861
tuł	-4862
▁55	-4863
▁Sej	-4864
ńcu	-4865
▁Niestety	-4866
▁ofertę	-4867
▁Hiszpa	-4868
▁odległości	-4869
▁Wielko	-4870
▁punktów	-4871
▁ochrony	-4872
▁Działa	-4873
▁zwierząt	-4874
▁Wz	-4875
▁dzisiej	-4876
▁pokoje	-4877
▁Hy	-4878
▁potrzeby	-4879
▁bohater	-4880
▁jesteś	-4881
▁polskiego	-4882
▁has	-4883
▁nagra	-4884
▁Spa	-4885
▁zabie	-4886
▁spowo	-4887
▁rado	-4888
▁Ana	-4889
▁eduka	-4890
boo	-4891
79	-4892
▁dem	-4893
▁ilości	-4894
▁Następnie	-4895
▁damskie	-4896
▁przekona	-4897
▁Aleksand	-4898
▁nieo	-4899
▁chciał	-4900
▁liczba	-4901
▁ryzy	-4902
lnia	-4903
turn	-4904
zno	-4905
▁RP	-4906
nisty	-4907
▁Jesteś	-4908
▁całą	-4909
▁przesz	-4910
▁klubu	-4911
▁Zdr	-4912
▁minu	-4913
▁innym	-4914
nęła	-4915
▁żywo	-4916
▁recenzje	-4917
nina	-4918
▁czo	-4919
▁mał	-4920
▁reprezentacji	-4921
▁kierunku	-4922
▁Jej	-4923
▁departa	-4924
▁zain	-4925
▁Praw	-4926
▁120	-4927
UD	-4928
groma	-4929
▁›	-4930
▁obra	-4931
▁poszczegól	-4932
9,00	-4933
▁Wiad	-4934
▁sen	-4935
▁zwłaszcza	-4936
▁zmian	-4937
▁zasta	-4938
▁Konkur	-4939
TY	-4940
▁Północ	-4941
▁fabry	-4942
jąć	-4943
▁Pary	-4944
diów	-4945
▁nazy	-4946
▁dba	-4947
▁dwo	-4948
▁atmos	-4949
▁wiecz	-4950
dowego	-4951
stej	-4952
▁zwo	-4953
▁spad	-4954
▁emo	-4955
▁zaprezen	-4956
▁handl	-4957
▁wiadomości	-4958
▁budże	-4959
▁pieniądze	-4960
dła	-4961
▁Jaro	-4962
▁mechani	-4963
▁srebr	-4964
▁Sprawdź	-4965
ture	-4966
.10	-4967
▁infor	-4968
▁tysięcy	-4969
▁Uwa	-4970
▁pochodzą	-4971
onor	-4972
torium	-4973
MS	-4974
kowany	-4975
UP	-4976
wości	-4977
▁pojazd	-4978
tive	-4979
▁Gry	-4980
▁rzym	-4981
▁Rol	-4982
jczy	-4983
▁stanowią	-4984
▁Polskie	-4985
▁bas	-4986
▁pokry	-4987
▁prób	-4988
▁prowin	-4989
▁was	-4990
▁Mate	-4991
czyli	-4992
▁naszą	-4993
▁ostatnie	-4994
▁uszko	-4995
RY	-4996
▁doskonale	-4997
kien	-4998
ong	-4999
illa	-5000
▁miło	-5001
72	-5002
▁pokoju	-5003
▁pierwszego	-5004
zwyczaj	-5005
▁przyro	-5006
▁nazwa	-5007
▁zależy	-5008
tniej	-5009
▁fra	-5010
▁ole	-5011
▁gaz	-5012
▁wyści	-5013
ker	-5014
▁wykonane	-5015
JA	-5016
burg	-5017
▁staro	-5018
▁przesy	-5019
▁mieli	-5020
rin	-5021
mierz	-5022
▁syste	-5023
▁placów	-5024
▁opu	-5025
dziale	-5026
▁oferta	-5027
pierw	-5028
hol	-5029
▁projek	-5030
73	-5031
▁powinna	-5032
▁styl	-5033
▁krwi	-5034
▁Że	-5035
▁dołą	-5036
rus	-5037
▁Opi	-5038
▁funkcjon	-5039
giel	-5040
▁wnętrz	-5041
▁geo	-5042
▁Funda	-5043
▁dotychczas	-5044
▁ziemi	-5045
nse	-5046
▁Mał	-5047
▁(10	-5048
▁tel	-5049
▁week	-5050
nale	-5051
▁krze	-5052
▁inte	-5053
▁uzu	-5054
▁przekaza	-5055
▁piątek	-5056
▁mal	-5057
▁funkcję	-5058
stwem	-5059
-20	-5060
")	-5061
▁spoży	-5062
▁Nauk	-5063
▁rozwiązania	-5064
OWA	-5065
zmu	-5066
▁salo	-5067
42	-5068
wis	-5069
szony	-5070
rzyna	-5071
▁zap	-5072
▁doros	-5073
▁rea	-5074
bus	-5075
▁współczes	-5076
▁Black	-5077
szów	-5078
▁Prac	-5079
sport	-5080
gur	-5081
▁Mas	-5082
kaz	-5083
▁innego	-5084
low	-5085
▁kuchen	-5086
▁reprezenta	-5087
▁wpis	-5088
dowania	-5089
▁śle	-5090
▁popraw	-5091
decznie	-5092
nitor	-5093
turze	-5094
Odpowiedz	-5095
▁urzę	-5096
ksu	-5097
▁sztuki	-5098
▁dysku	-5099
ósł	-5100
▁Gol	-5101
▁Mistrzostwa	-5102
▁Windows	-5103
▁postanowi	-5104
▁klienta	-5105
▁Akademii	-5106
dło	-5107
▁technologii	-5108
tri	-5109
▁urządzeń	-5110
cezji	-5111
dzanie	-5112
▁przedszko	-5113
▁con	-5114
▁dystry	-5115
▁mieszkanie	-5116
▁internetowej	-5117
▁Międzynarod	-5118
▁mięk	-5119
▁odży	-5120
▁wzią	-5121
82	-5122
▁elementów	-5123
▁Reprezen	-5124
tuj	-5125
czymy	-5126
MI	-5127
▁postu	-5128
▁związanych	-5129
▁wpływ	-5130
▁Klu	-5131
grywa	-5132
▁blu	-5133
▁sukces	-5134
▁chociaż	-5135
▁Ogól	-5136
kwi	-5137
▁pomysł	-5138
▁wiedzy	-5139
Fi	-5140
▁kompozy	-5141
▁ses	-5142
CE	-5143
▁serca	-5144
▁och	-5145
.11	-5146
nicą	-5147
▁branży	-5148
▁trzyma	-5149
▁towar	-5150
▁napisał	-5151
dwie	-5152
▁Klien	-5153
▁Pięk	-5154
▁Tro	-5155
stron	-5156
lerii	-5157
▁net	-5158
sic	-5159
▁Bia	-5160
nicę	-5161
▁możliwe	-5162
▁opowie	-5163
▁reda	-5164
▁stanowisko	-5165
vel	-5166
▁samodzie	-5167
xt	-5168
▁orze	-5169
leng	-5170
▁turnieju	-5171
▁Inne	-5172
▁sch	-5173
▁Google	-5174
▁Środ	-5175
▁Stre	-5176
cek	-5177
▁Dzień	-5178
▁budowy	-5179
▁komentarz	-5180
▁liczby	-5181
▁33	-5182
stym	-5183
▁Mieszkanie	-5184
cjami	-5185
lanie	-5186
▁grani	-5187
▁Post	-5188
9,99	-5189
▁Dia	-5190
▁kandyda	-5191
▁LED	-5192
▁muszą	-5193
ata	-5194
▁ludz	-5195
jącymi	-5196
pel	-5197
towo	-5198
IR	-5199
▁góry	-5200
zowane	-5201
▁uwagi	-5202
▁alkoho	-5203
ras	-5204
▁wynik	-5205
toria	-5206
▁doj	-5207
cień	-5208
▁poszuki	-5209
▁problemy	-5210
▁przyda	-5211
63	-5212
▁Char	-5213
▁dopas	-5214
stria	-5215
▁World	-5216
▁zatem	-5217
▁hotel	-5218
szymi	-5219
Ja	-5220
69	-5221
▁taką	-5222
▁dodatkowo	-5223
▁Interne	-5224
mieniu	-5225
NIE	-5226
▁wią	-5227
jek	-5228
▁rozpoczął	-5229
bach	-5230
▁drob	-5231
▁centra	-5232
praszam	-5233
▁darmo	-5234
▁zauwa	-5235
The	-5236
▁komór	-5237
▁Mater	-5238
:10	-5239
▁Towarzy	-5240
jna	-5241
▁pos	-5242
▁Europie	-5243
czach	-5244
▁niemal	-5245
grafii	-5246
▁Ur	-5247
▁rozwój	-5248
kąd	-5249
lonych	-5250
▁1999	-5251
▁Mikoła	-5252
▁zja	-5253
▁brze	-5254
wajcar	-5255
wice	-5256
▁wąt	-5257
▁jakieś	-5258
▁Czas	-5259
▁Nagro	-5260
telni	-5261
▁8.	-5262
cony	-5263
▁kolorze	-5264
hy	-5265
▁użytkowa	-5266
pety	-5267
rzone	-5268
tis	-5269
val	-5270
▁Nazwa	-5271
▁Japo	-5272
▁Łuka	-5273
strzega	-5274
▁warunki	-5275
▁38	-5276
▁Boże	-5277
pii	-5278
▁wskaza	-5279
▁moim	-5280
▁Posiada	-5281
▁Va	-5282
▁powoła	-5283
▁słone	-5284
polskie	-5285
MA	-5286
▁Ewa	-5287
▁Okrę	-5288
▁zagrani	-5289
▁profi	-5290
▁zade	-5291
▁Poprzedni	-5292
mowanie	-5293
mien	-5294
▁oszczę	-5295
kój	-5296
▁Res	-5297
▁widać	-5298
▁Face	-5299
▁reżyser	-5300
▁kocha	-5301
LA	-5302
▁poten	-5303
▁Wis	-5304
▁uczu	-5305
nce	-5306
▁sezonu	-5307
▁nadzieję	-5308
PR	-5309
▁Rosji	-5310
kło	-5311
▁Fer	-5312
▁Świat	-5313
zależ	-5314
▁nowa	-5315
krót	-5316
▁Poznaniu	-5317
▁1000	-5318
==	-5319
simy	-5320
▁Dem	-5321
▁Dodano	-5322
▁Nad	-5323
gru	-5324
▁miłości	-5325
ica	-5326
▁www	-5327
▁POL	-5328
▁hotelu	-5329
▁Puchar	-5330
▁sklepu	-5331
▁180	-5332
▁większość	-5333
▁Opo	-5334
▁ap	-5335
▁tr	-5336
▁Łodzi	-5337
jonie	-5338
▁Wyniki	-5339
OC	-5340
bija	-5341
▁CH	-5342
▁ści	-5343
▁Jaku	-5344
▁zapła	-5345
mieni	-5346
▁Albumy	-5347
▁wiedzieć	-5348
▁istnieje	-5349
▁Grupa	-5350
▁zazna	-5351
▁jaka	-5352
wód	-5353
tyków	-5354
▁samochodu	-5355
▁pory	-5356
▁plat	-5357
▁katoli	-5358
▁market	-5359
▁mas	-5360
▁pochodzi	-5361
▁norma	-5362
▁polskim	-5363
▁ucz	-5364
▁SZ	-5365
tują	-5366
▁komentarzy	-5367
żonych	-5368
EO	-5369
▁poczu	-5370
▁gorą	-5371
▁250	-5372
▁kart	-5373
▁unika	-5374
▁Kali	-5375
▁Ind	-5376
▁hu	-5377
▁cier	-5378
don	-5379
gami	-5380
▁Długo	-5381
▁ciąg	-5382
▁Marcin	-5383
▁tera	-5384
poli	-5385
▁table	-5386
▁maj	-5387
▁Eko	-5388
▁buty	-5389
udi	-5390
▁powinno	-5391
▁żołnie	-5392
▁konkursu	-5393
▁wrę	-5394
niósł	-5395
nowie	-5396
▁Gospodar	-5397
▁34	-5398
▁1998	-5399
wanych	-5400
▁okręgu	-5401
▁podoba	-5402
▁agen	-5403
▁Warszawy	-5404
żeniu	-5405
szeń	-5406
wró	-5407
▁rejonie	-5408
oo	-5409
▁oświet	-5410
▁badań	-5411
▁spełnia	-5412
▁Oczywiście	-5413
▁zachę	-5414
▁pt	-5415
▁tajem	-5416
▁piłce	-5417
wacji	-5418
▁pło	-5419
▁tematy	-5420
dex	-5421
loka	-5422
▁Gdańsk	-5423
▁bieg	-5424
▁człowiek	-5425
nci	-5426
:15	-5427
▁\	-5428
▁Pana	-5429
▁%	-5430
▁polska	-5431
▁wyjątk	-5432
finans	-5433
▁jakby	-5434
▁Nale	-5435
▁pokój	-5436
owały	-5437
▁Dzien	-5438
▁pojawia	-5439
our	-5440
▁niestety	-5441
▁pry	-5442
cku	-5443
mnie	-5444
▁niezależ	-5445
▁inny	-5446
▁Model	-5447
▁zakresu	-5448
▁65	-5449
▁nożnej	-5450
dowej	-5451
▁bezpośrednio	-5452
ime	-5453
▁polskie	-5454
▁momencie	-5455
kowie	-5456
▁wyro	-5457
▁Ska	-5458
▁przypomina	-5459
▁wybu	-5460
▁zwykle	-5461
▁rozu	-5462
▁powietrza	-5463
▁kolejnych	-5464
cząć	-5465
▁Bor	-5466
▁Marek	-5467
▁departamencie	-5468
▁uczniów	-5469
▁nadz	-5470
rium	-5471
▁pali	-5472
▁opis	-5473
▁Kazi	-5474
▁Dział	-5475
▁łu	-5476
▁Szuka	-5477
▁szere	-5478
▁niektórych	-5479
▁czarny	-5480
▁Ve	-5481
▁nazwi	-5482
▁przyję	-5483
▁100%	-5484
▁Chri	-5485
▁nauki	-5486
▁elementy	-5487
▁artysty	-5488
▁1/	-5489
▁sprzętu	-5490
▁dekora	-5491
mas	-5492
▁dłuż	-5493
▁Komu	-5494
▁rozwiązanie	-5495
ńczy	-5496
▁prote	-5497
▁Ogło	-5498
▁zasi	-5499
▁szkolenia	-5500
ciół	-5501
▁eli	-5502
▁har	-5503
▁dodatkowe	-5504
▁sprzęt	-5505
▁obsza	-5506
▁głowy	-5507
godnie	-5508
▁przemysł	-5509
EW	-5510
▁ułat	-5511
wskiej	-5512
▁lista	-5513
▁Elekt	-5514
angaż	-5515
jnych	-5516
▁PK	-5517
▁City	-5518
wro	-5519
▁poszu	-5520
▁Republi	-5521
▁karie	-5522
▁XIX	-5523
▁Tor	-5524
▁wypoczy	-5525
tic	-5526
▁zwierzę	-5527
▁0.	-5528
deks	-5529
▁współprac	-5530
pić	-5531
▁VAT	-5532
Ra	-5533
:20	-5534
ulka	-5535
jmy	-5536
▁Toru	-5537
▁48	-5538
▁samochód	-5539
▁gre	-5540
gon	-5541
▁Kas	-5542
▁tworzą	-5543
▁inspi	-5544
gry	-5545
▁dużą	-5546
▁imprez	-5547
tycznego	-5548
-6	-5549
▁bryty	-5550
▁rolę	-5551
▁rodzaj	-5552
▁Miasto	-5553
▁ostatnio	-5554
▁gdyby	-5555
▁sprawdza	-5556
▁bieżą	-5557
▁odzna	-5558
▁UE	-5559
▁Zestaw	-5560
▁prą	-5561
▁wyboru	-5562
▁przecież	-5563
▁domy	-5564
▁smart	-5565
emu	-5566
▁Łódź	-5567
tter	-5568
▁1997	-5569
▁AG	-5570
own	-5571
De	-5572
▁niedo	-5573
▁Stanisław	-5574
zeta	-5575
▁zab	-5576
▁polecam	-5577
gnięcia	-5578
▁zbudowa	-5579
","	-5580
prawie	-5581
▁Agnie	-5582
▁pozwoli	-5583
▁musisz	-5584
tui	-5585
▁poniżej	-5586
vis	-5587
CA	-5588
▁Bal	-5589
ściami	-5590
▁nowym	-5591
▁zamieszki	-5592
▁będę	-5593
▁przeciwko	-5594
▁Internet	-5595
▁Sil	-5596
▁pośredni	-5597
▁poro	-5598
rabia	-5599
▁wiadomo	-5600
▁Letnich	-5601
▁meble	-5602
▁inaczej	-5603
▁wersja	-5604
owca	-5605
▁Kto	-5606
▁ruch	-5607
▁zajmuje	-5608
____	-5609
▁opowiada	-5610
▁maksyma	-5611
:45	-5612
▁wytrzyma	-5613
▁wyraz	-5614
▁pri	-5615
▁obję	-5616
▁umiejętności	-5617
▁Cor	-5618
nkowie	-5619
▁okolicy	-5620
stego	-5621
▁Dlaczego	-5622
▁razu	-5623
:40	-5624
▁zapraszamy	-5625
▁zakład	-5626
▁Społe	-5627
▁hotele	-5628
▁Dziś	-5629
:50	-5630
łod	-5631
▁kobieta	-5632
▁masa	-5633
▁Tylko	-5634
pp	-5635
owanej	-5636
▁Rzy	-5637
▁krea	-5638
▁Szwe	-5639
turę	-5640
▁Pozosta	-5641
▁Bri	-5642
sign	-5643
zację	-5644
▁pojedyn	-5645
▁6,	-5646
tin	-5647
▁rząd	-5648
rąg	-5649
▁powinny	-5650
▁Białoru	-5651
cale	-5652
nior	-5653
jon	-5654
▁nikt	-5655
▁Grzego	-5656
▁Podob	-5657
pięk	-5658
▁blog	-5659
▁kultury	-5660
tność	-5661
▁kola	-5662
▁Buty	-5663
▁rza	-5664
pka	-5665
▁działanie	-5666
▁Austra	-5667
▁Artyku	-5668
▁mówią	-5669
▁mg	-5670
▁napę	-5671
▁pomys	-5672
▁Wielkiej	-5673
▁zaga	-5674
Bi	-5675
▁Czerwo	-5676
owskiej	-5677
terna	-5678
wersa	-5679
▁Lam	-5680
▁wystarczy	-5681
▁Tru	-5682
▁zależności	-5683
chnię	-5684
▁ela	-5685
yo	-5686
▁zajęcia	-5687
▁Hotele	-5688
▁obok	-5689
tecznie	-5690
▁pierwszych	-5691
▁telefonu	-5692
▁obywa	-5693
▁pkt	-5694
linie	-5695
load	-5696
▁Afry	-5697
najmniej	-5698
▁Wielka	-5699
▁przysta	-5700
lista	-5701
&&	-5702
▁prosto	-5703
▁Pierwszy	-5704
71	-5705
▁Dzieci	-5706
czak	-5707
szone	-5708
ari	-5709
▁treści	-5710
........	-5711
▁osiąg	-5712
▁woka	-5713
pów	-5714
wolu	-5715
▁7,	-5716
▁you	-5717
udio	-5718
▁cmenta	-5719
▁działań	-5720
▁10.	-5721
▁pokona	-5722
▁Państwo	-5723
!!!!	-5724
nom	-5725
▁Pora	-5726
fikacja	-5727
▁zakłada	-5728
ndy	-5729
DA	-5730
▁mocno	-5731
▁ex	-5732
lica	-5733
▁Francu	-5734
▁jezio	-5735
▁Cu	-5736
padek	-5737
dencji	-5738
41	-5739
▁cza	-5740
stal	-5741
wił	-5742
▁kilo	-5743
▁państwa	-5744
01	-5745
czech	-5746
▁ode	-5747
wów	-5748
▁standard	-5749
▁mody	-5750
▁zdecydowa	-5751
mują	-5752
▁Henry	-5753
▁sportowe	-5754
▁Ver	-5755
81	-5756
jąco	-5757
▁Dra	-5758
▁rozgrywa	-5759
▁wios	-5760
▁Play	-5761
▁muzyki	-5762
▁grupa	-5763
▁parafia	-5764
▁biegu	-5765
▁Jas	-5766
▁potencja	-5767
rzony	-5768
▁prezes	-5769
wzglę	-5770
nospraw	-5771
▁sio	-5772
.05	-5773
▁dzielni	-5774
VD	-5775
▁upraw	-5776
rucho	-5777
▁krem	-5778
▁teren	-5779
▁cud	-5780
▁zostaną	-5781
▁1996	-5782
▁przer	-5783
▁miały	-5784
ciła	-5785
▁skierowa	-5786
▁ID	-5787
▁Kro	-5788
gowych	-5789
ments	-5790
▁wydaje	-5791
▁zastęp	-5792
▁mojej	-5793
▁powro	-5794
samowi	-5795
mą	-5796
▁akcesoria	-5797
Wi	-5798
▁transport	-5799
...)	-5800
dopodobnie	-5801
▁metal	-5802
jeżd	-5803
▁Nasze	-5804
▁prawidł	-5805
▁partner	-5806
krótce	-5807
▁podwój	-5808
kli	-5809
▁podróży	-5810
dowo	-5811
bl	-5812
▁Ję	-5813
▁prowincji	-5814
gorza	-5815
▁doświadczenie	-5816
▁pamięci	-5817
62	-5818
▁powiado	-5819
kł	-5820
▁miesza	-5821
serw	-5822
roda	-5823
▁Jestem	-5824
▁Kre	-5825
óle	-5826
.08	-5827
▁aplikacji	-5828
kija	-5829
tości	-5830
▁rzą	-5831
▁Dodatkowo	-5832
▁dlaczego	-5833
panii	-5834
▁spor	-5835
▁poprzedni	-5836
sole	-5837
chan	-5838
▁NIE	-5839
ierę	-5840
▁zamówienia	-5841
▁nową	-5842
▁Regu	-5843
▁planeto	-5844
▁twier	-5845
▁oni	-5846
lenda	-5847
:12	-5848
▁Londy	-5849
nujemy	-5850
▁ros	-5851
▁(3)	-5852
alne	-5853
▁trzeci	-5854
-15	-5855
▁Niemczech	-5856
BA	-5857
iękuję	-5858
▁Wydawnictwo	-5859
guje	-5860
ENT	-5861
brzy	-5862
▁szkół	-5863
▁gier	-5864
▁Absolwen	-5865
▁opisa	-5866
kienka	-5867
hat	-5868
▁Agen	-5869
▁Nau	-5870
▁mobil	-5871
▁Las	-5872
towała	-5873
▁Robert	-5874
▁Prezyden	-5875
▁spokoj	-5876
owanym	-5877
▁Następny	-5878
Ad	-5879
dzono	-5880
IV	-5881
▁Gala	-5882
ida	-5883
▁męskie	-5884
spa	-5885
lozo	-5886
mentem	-5887
lary	-5888
▁samej	-5889
▁inwestycji	-5890
▁kogo	-5891
niorów	-5892
wskim	-5893
katoli	-5894
ctwo	-5895
nó	-5896
▁bły	-5897
▁modelu	-5898
▁hoteli	-5899
▁Fu	-5900
▁materiału	-5901
towego	-5902
▁anali	-5903
▁Kole	-5904
▁Państw	-5905
▁twar	-5906
▁fanta	-5907
▁Dam	-5908
bla	-5909
▁AL	-5910
▁bibliote	-5911
pełnospraw	-5912
polski	-5913
▁układ	-5914
osob	-5915
▁ZS	-5916
▁wydaw	-5917
▁sprawy	-5918
▁Kościół	-5919
61	-5920
▁nocy	-5921
▁herba	-5922
▁2018,	-5923
▁warzy	-5924
▁problemów	-5925
▁przestrzeni	-5926
onych	-5927
▁wykoń	-5928
▁szkole	-5929
sen	-5930
▁PRZ	-5931
owskim	-5932
cielem	-5933
:11	-5934
▁PS	-5935
▁Igrzysk	-5936
▁małe	-5937
▁zdjęcie	-5938
▁dowód	-5939
▁otwo	-5940
czości	-5941
▁zaangaż	-5942
▁Zu	-5943
Ij	-5944
▁Cam	-5945
▁grzy	-5946
▁wchodzi	-5947
▁powinni	-5948
dną	-5949
}}	-5950
▁jakiego	-5951
▁der	-5952
▁ciekawe	-5953
łowo	-5954
▁jo	-5955
tycy	-5956
wicza	-5957
▁dostos	-5958
stre	-5959
▁interesu	-5960
▁IP	-5961
tyma	-5962
▁nazwę	-5963
▁cuk	-5964
▁sce	-5965
▁narciar	-5966
▁czwartek	-5967
▁dokład	-5968
▁Lip	-5969
▁przeka	-5970
foni	-5971
▁materiały	-5972
▁jakich	-5973
▁termin	-5974
pedia	-5975
▁Kolor	-5976
▁powiedzieć	-5977
rowi	-5978
▁amerykański	-5979
▁Centra	-5980
walu	-5981
▁wokół	-5982
tość	-5983
▁netto	-5984
berg	-5985
▁Brak	-5986
▁sing	-5987
▁obejmuje	-5988
▁wez	-5989
▁Spół	-5990
▁zabaw	-5991
▁John	-5992
pem	-5993
▁chemi	-5994
np	-5995
dl	-5996
kana	-5997
▁37	-5998
▁zaprojekt	-5999
▁ata	-6000
gowa	-6001
▁Witam	-6002
zdra	-6003
▁regular	-6004
▁Poza	-6005
▁Bryty	-6006
kładzie	-6007
▁Amery	-6008
▁archite	-6009
▁naby	-6010
▁tle	-6011
▁Klasy	-6012
▁kontynu	-6013
zą	-6014
kony	-6015
syst	-6016
▁Wrocławiu	-6017
▁internetowy	-6018
.03	-6019
▁zdrowie	-6020
usa	-6021
▁kompleks	-6022
wum	-6023
▁większości	-6024
▁Pły	-6025
.12	-6026
nionych	-6027
▁ekonomi	-6028
▁żadnych	-6029
▁bazie	-6030
▁firmie	-6031
:19	-6032
▁ucze	-6033
obraz	-6034
tywa	-6035
▁stacji	-6036
żona	-6037
▁zaprasza	-6038
▁dyrektor	-6039
▁pieniędzy	-6040
▁Program	-6041
▁udziału	-6042
-18	-6043
▁zebra	-6044
▁intensyw	-6045
głę	-6046
jciec	-6047
▁stopni	-6048
▁poniedziałek	-6049
LCJ	-6050
▁należała	-6051
vie	-6052
▁Pau	-6053
▁połowie	-6054
▁44	-6055
gue	-6056
▁będziesz	-6057
▁drużyny	-6058
bina	-6059
▁równo	-6060
▁całkowicie	-6061
▁Katowice	-6062
IĘ	-6063
gni	-6064
▁Zwy	-6065
▁sami	-6066
▁Niemiec	-6067
▁wykonania	-6068
Te	-6069
▁zwyk	-6070
Jak	-6071
▁bada	-6072
▁podda	-6073
▁ogrze	-6074
▁świetnie	-6075
▁Prawo	-6076
iO	-6077
ówki	-6078
▁sekre	-6079
lono	-6080
▁Pomo	-6081
twiera	-6082
▁reli	-6083
sung	-6084
ves	-6085
▁Ali	-6086
▁IT	-6087
▁stó	-6088
▁szczęście	-6089
▁komentarze	-6090
▁Spotka	-6091
IZ	-6092
▁sygna	-6093
łami	-6094
▁miało	-6095
▁podobne	-6096
▁test	-6097
▁trój	-6098
▁zadebiu	-6099
▁apara	-6100
niak	-6101
▁Pucharu	-6102
lski	-6103
wień	-6104
▁Hol	-6105
▁2.0	-6106
▁rynek	-6107
▁85	-6108
mac	-6109
▁energe	-6110
▁kwali	-6111
▁sh	-6112
▁pięć	-6113
▁moja	-6114
/19	-6115
iem	-6116
▁Profil	-6117
▁Part	-6118
▁zamiast	-6119
▁mistrzostwach	-6120
▁trudno	-6121
szła	-6122
OdpowiedzUsuń	-6123
▁Dąb	-6124
▁Ada	-6125
rzeniu	-6126
▁doprowa	-6127
los	-6128
Me	-6129
▁Cer	-6130
gor	-6131
fal	-6132
▁magi	-6133
▁walki	-6134
▁udzie	-6135
EZ	-6136
dzaj	-6137
UK	-6138
0,	-6139
▁wnętrza	-6140
▁pamiętać	-6141
▁obja	-6142
▁Wojs	-6143
▁Wam	-6144
▁AR	-6145
pomor	-6146
▁rywa	-6147
▁powiatu	-6148
▁wypadku	-6149
▁Zespół	-6150
▁wydania	-6151
▁obwodzie	-6152
▁licen	-6153
▁klimaty	-6154
okra	-6155
▁Min	-6156
miu	-6157
▁EUR	-6158
▁Czło	-6159
▁MA	-6160
▁2021	-6161
kg	-6162
unt	-6163
▁wartość	-6164
.01	-6165
▁Try	-6166
▁Bibliote	-6167
▁zareje	-6168
▁chwilę	-6169
żeniem	-6170
▁9.	-6171
tara	-6172
▁Rok	-6173
landia	-6174
aria	-6175
cel	-6176
▁książka	-6177
▁Administra	-6178
▁tygodniu	-6179
▁42	-6180
▁Restaura	-6181
:13	-6182
▁lam	-6183
▁komen	-6184
return	-6185
czko	-6186
▁zobacz	-6187
▁AM	-6188
.09	-6189
▁1991	-6190
▁dodać	-6191
▁Komisji	-6192
bine	-6193
▁wybor	-6194
▁całe	-6195
▁Jakie	-6196
▁domów	-6197
▁Począ	-6198
lop	-6199
▁siedzibą	-6200
lania	-6201
▁gimna	-6202
▁dotyczy	-6203
▁eksper	-6204
▁1994	-6205
▁2019,	-6206
szczą	-6207
▁szta	-6208
każ	-6209
▁pielęgna	-6210
▁rozsze	-6211
▁godzinie	-6212
▁efekt	-6213
szczu	-6214
▁gła	-6215
owość	-6216
▁zdecydowanie	-6217
arę	-6218
▁niewy	-6219
▁spośród	-6220
▁Han	-6221
▁rodziców	-6222
▁kiedyś	-6223
▁decyzji	-6224
łama	-6225
▁1992	-6226
▁Polaków	-6227
▁Szkoła	-6228
dowi	-6229
ówka	-6230
lti	-6231
:25	-6232
ścija	-6233
cjonu	-6234
▁sporo	-6235
▁GR	-6236
▁wraca	-6237
.06	-6238
▁Związku	-6239
▁zmieni	-6240
gl	-6241
▁from	-6242
sis	-6243
▁OP	-6244
▁przewi	-6245
▁robić	-6246
▁mistrz	-6247
24.	-6248
rześcija	-6249
▁zajął	-6250
▁rach	-6251
▁wykorzystu	-6252
▁czasach	-6253
▁zadania	-6254
▁Wsie	-6255
ktora	-6256
cznika	-6257
▁data	-6258
▁ozdob	-6259
działy	-6260
▁Niemcy	-6261
AND	-6262
▁Ochro	-6263
TE	-6264
▁Kier	-6265
▁sobotę	-6266
▁piersi	-6267
▁pomieszcze	-6268
▁Ac	-6269
myś	-6270
▁skoń	-6271
▁uśmie	-6272
jka	-6273
▁tysią	-6274
▁97	-6275
komi	-6276
okie	-6277
▁publikacji	-6278
▁Pawła	-6279
▁Wojciech	-6280
▁substan	-6281
▁imprezy	-6282
Dz	-6283
▁pisze	-6284
ami	-6285
▁Gli	-6286
▁As	-6287
-)	-6288
woka	-6289
▁moto	-6290
szczone	-6291
eksy	-6292
▁Stanach	-6293
="	-6294
▁zreali	-6295
lki	-6296
lobal	-6297
▁występuje	-6298
▁Medy	-6299
▁ocenia	-6300
▁kap	-6301
nau	-6302
▁Góra	-6303
ING	-6304
▁drugim	-6305
▁sypia	-6306
▁dostępna	-6307
▁przegra	-6308
nowe	-6309
▁producent	-6310
▁internetowych	-6311
lient	-6312
▁chłop	-6313
mistrz	-6314
dii	-6315
▁problemu	-6316
▁port	-6317
▁wprowadza	-6318
▁biały	-6319
▁szans	-6320
ilka	-6321
sel	-6322
▁pierwszą	-6323
nowy	-6324
▁dale	-6325
takt	-6326
▁1995	-6327
▁szef	-6328
▁podmio	-6329
br	-6330
wielbia	-6331
▁przeło	-6332
▁zadba	-6333
▁obli	-6334
ownie	-6335
▁wzrost	-6336
:05	-6337
owań	-6338
▁Olszty	-6339
▁czterech	-6340
▁awans	-6341
▁elektro	-6342
leb	-6343
ersja	-6344
▁Mamy	-6345
▁karty	-6346
▁edycji	-6347
▁dużej	-6348
ńce	-6349
▁Boga	-6350
fel	-6351
▁Mc	-6352
▁trener	-6353
/200	-6354
▁Wśród	-6355
fle	-6356
lay	-6357
hone	-6358
▁Skar	-6359
▁przyszłości	-6360
IO	-6361
▁komi	-6362
▁aku	-6363
żka	-6364
▁liście	-6365
▁strate	-6366
▁firmę	-6367
waniem	-6368
rządzenie	-6369
▁Vol	-6370
▁Pom	-6371
▁idealnie	-6372
EGO	-6373
▁członków	-6374
▁standar	-6375
etro	-6376
▁fas	-6377
▁płyty	-6378
▁kapita	-6379
▁woda	-6380
▁kościoła	-6381
▁historia	-6382
dukacji	-6383
▁letni	-6384
▁Oto	-6385
▁rzu	-6386
▁//	-6387
lość	-6388
orty	-6389
▁Chin	-6390
▁Powsta	-6391
trzeb	-6392
▁1945	-6393
▁Świ	-6394
▁wtorek	-6395
ctwem	-6396
▁Genera	-6397
nowu	-6398
▁wideo	-6399
▁zaka	-6400
▁Grand	-6401
mian	-6402
▁małych	-6403
▁Tour	-6404
▁osobowych	-6405
▁użytkownika	-6406
▁One	-6407
▁uczestników	-6408
mai	-6409
▁Rów	-6410
▁ner	-6411
dago	-6412
▁serwisu	-6413
.04	-6414
▁serwisie	-6415
:35	-6416
▁języku	-6417
:55	-6418
zny	-6419
▁zasady	-6420
tąd	-6421
▁punk	-6422
terii	-6423
fil	-6424
▁dyrek	-6425
▁Ich	-6426
ranża	-6427
Pod	-6428
ana	-6429
▁zabawy	-6430
▁całości	-6431
▁młodzieży	-6432
▁powszech	-6433
▁rady	-6434
▁prawda	-6435
▁dek	-6436
▁fry	-6437
▁Filmy	-6438
▁książek	-6439
▁bur	-6440
▁ude	-6441
▁Tade	-6442
▁opo	-6443
▁opinię	-6444
▁Józef	-6445
uch	-6446
▁pierwsza	-6447
▁dostarcza	-6448
▁CZ	-6449
partament	-6450
▁Klub	-6451
▁zako	-6452
via	-6453
▁Mistrzostw	-6454
▁dolar	-6455
▁::	-6456
▁rozpozna	-6457
▁utworów	-6458
tanii	-6459
kują	-6460
▁piłkarz	-6461
▁600	-6462
▁wysła	-6463
▁Red	-6464
▁odpowiednio	-6465
▁choroby	-6466
łuma	-6467
▁niedzielę	-6468
▁odzy	-6469
▁Szkoły	-6470
▁parla	-6471
IF	-6472
lonej	-6473
▁inicja	-6474
▁WWW	-6475
op	-6476
▁dokumenta	-6477
ńsko	-6478
versi	-6479
54	-6480
▁włosy	-6481
▁środowiska	-6482
df	-6483
▁Ide	-6484
▁fla	-6485
▁Mazowie	-6486
▁ham	-6487
▁sprawdzić	-6488
▁KM	-6489
▁Mimo	-6490
▁dziennika	-6491
▁Tytuł	-6492
noślą	-6493
▁skorzystać	-6494
kl	-6495
▁obiektów	-6496
Ga	-6497
▁Opinie	-6498
▁pracował	-6499
▁Blue	-6500
misja	-6501
nkiem	-6502
▁Europejskiej	-6503
typ	-6504
hite	-6505
zować	-6506
kowana	-6507
▁Tam	-6508
ink	-6509
▁stary	-6510
▁porusza	-6511
▁Biały	-6512
▁innowa	-6513
▁wypoży	-6514
▁Pier	-6515
▁Far	-6516
▁proszę	-6517
EP	-6518
▁celem	-6519
▁Unii	-6520
gowy	-6521
▁Jerzy	-6522
van	-6523
▁Kościoła	-6524
zju	-6525
tyna	-6526
▁niebezpie	-6527
▁funkcji	-6528
▁Rafa	-6529
liknij	-6530
▁filmów	-6531
▁ogrod	-6532
▁dobrej	-6533
▁Łą	-6534
▁Będzie	-6535
▁długie	-6536
▁1939	-6537
pres	-6538
:01	-6539
ffi	-6540
▁Port	-6541
▁Krzyżem	-6542
▁Posted	-6543
▁wczoraj	-6544
▁członkiem	-6545
▁Najlepsze	-6546
stąpił	-6547
▁(1),	-6548
nna	-6549
▁posił	-6550
▁uzyskać	-6551
tions	-6552
roid	-6553
zach	-6554
▁punkt	-6555
▁Włady	-6556
▁wypeł	-6557
▁Wydziału	-6558
▁Peł	-6559
▁Proszę	-6560
▁miesiąc	-6561
owanego	-6562
post	-6563
kową	-6564
▁staje	-6565
▁kąpie	-6566
żan	-6567
▁głoś	-6568
▁wyz	-6569
▁gwiazd	-6570
day	-6571
czyło	-6572
jeżdża	-6573
towana	-6574
▁Dostęp	-6575
▁Małgorza	-6576
▁nagrody	-6577
▁zakupu	-6578
▁słów	-6579
▁kościół	-6580
▁Plus	-6581
▁pomóc	-6582
sień	-6583
her	-6584
▁pola	-6585
Czy	-6586
▁Mosk	-6587
▁emery	-6588
▁Wykona	-6589
▁Blog	-6590
SKI	-6591
uri	-6592
▁festi	-6593
▁mogła	-6594
▁symbo	-6595
-8	-6596
▁ślu	-6597
▁pras	-6598
▁scena	-6599
▁KR	-6600
▁różno	-6601
▁Kli	-6602
dzili	-6603
chać	-6604
reszcie	-6605
▁Zy	-6606
tero	-6607
▁podobnie	-6608
miany	-6609
rodę	-6610
red	-6611
.02	-6612
▁spółki	-6613
▁wygląd	-6614
▁zbli	-6615
fery	-6616
▁młodych	-6617
▁cieszy	-6618
Sa	-6619
▁fakt	-6620
way	-6621
▁wysoko	-6622
▁przeglą	-6623
▁warunkach	-6624
▁dyplo	-6625
▁pane	-6626
lka	-6627
▁końc	-6628
▁gr	-6629
▁kosztów	-6630
▁Gło	-6631
:18	-6632
dniki	-6633
▁Sier	-6634
ctor	-6635
▁niespo	-6636
▁ró	-6637
:59	-6638
▁rejestra	-6639
▁poszczególnych	-6640
▁dora	-6641
▁minister	-6642
wcy	-6643
▁pewnie	-6644
▁Koszy	-6645
▁Vo	-6646
.07	-6647
▁tekst	-6648
▁brz	-6649
▁cywi	-6650
▁miłość	-6651
▁konto	-6652
▁modli	-6653
▁najlepszy	-6654
:22	-6655
▁loty	-6656
▁Maciej	-6657
▁punkty	-6658
▁Rosy	-6659
▁wcale	-6660
▁uczy	-6661
ściej	-6662
techni	-6663
mir	-6664
▁nasza	-6665
zumie	-6666
ames	-6667
▁Media	-6668
▁podkreśla	-6669
świę	-6670
▁restauracji	-6671
▁USB	-6672
▁dotyczących	-6673
zycji	-6674
▁niech	-6675
▁biega	-6676
▁Twój	-6677
▁Lea	-6678
▁młodzież	-6679
gy	-6680
▁tech	-6681
▁ubra	-6682
tymi	-6683
stwu	-6684
▁brutto	-6685
▁orga	-6686
▁Oprócz	-6687
:02	-6688
▁malu	-6689
▁samolo	-6690
:14	-6691
zar	-6692
▁cyfr	-6693
▁stosunku	-6694
:16	-6695
AJ	-6696
▁Wymiary	-6697
▁ośrod	-6698
▁noclegi	-6699
▁niesamowi	-6700
▁zestawie	-6701
▁propo	-6702
▁doszło	-6703
▁spodzie	-6704
▁oprogram	-6705
:17	-6706
chodów	-6707
▁klasyfikacji	-6708
▁koszty	-6709
▁Zo	-6710
length	-6711
▁(18	-6712
▁niepełnospraw	-6713
▁trening	-6714
▁Galeria	-6715
tos	-6716
▁Ben	-6717
rzchnia	-6718
▁Producent	-6719
▁zob	-6720
▁Urząd	-6721
:24	-6722
▁All	-6723
▁Pogo	-6724
▁Profes	-6725
est	-6726
▁Nasza	-6727
▁wyników	-6728
▁proste	-6729
tujemy	-6730
MW	-6731
:03	-6732
▁internetowa	-6733
▁AS	-6734
ena	-6735
bór	-6736
ore	-6737
gię	-6738
ral	-6739
ding	-6740
▁stał	-6741
SKA	-6742
jki	-6743
▁plików	-6744
▁zachwy	-6745
korzy	-6746
▁swobo	-6747
gowego	-6748
▁wspólnie	-6749
▁poważ	-6750
▁korzystać	-6751
▁Gdzie	-6752
▁posłu	-6753
▁sztuk	-6754
▁Flo	-6755
▁Tanie	-6756
▁chroni	-6757
▁długość	-6758
skokatoli	-6759
▁BL	-6760
▁Seria	-6761
▁Agnieszka	-6762
▁rą	-6763
▁przyjaciół	-6764
towano	-6765
kowska	-6766
No	-6767
niny	-6768
▁zegar	-6769
Bu	-6770
▁obni	-6771
ZD	-6772
:21	-6773
▁określa	-6774
mami	-6775
▁mówił	-6776
sja	-6777
▁zaawans	-6778
▁Sła	-6779
▁kolekcji	-6780
51	-6781
▁efektyw	-6782
▁automatycz	-6783
▁broni	-6784
:28	-6785
logicznych	-6786
▁Zgło	-6787
▁1954	-6788
▁porząd	-6789
▁TR	-6790
▁Brze	-6791
▁dużym	-6792
mujemy	-6793
▁Portal	-6794
▁konkurs	-6795
▁gatunek	-6796
▁same	-6797
▁stopnia	-6798
:32	-6799
▁Ener	-6800
▁©	-6801
▁Progra	-6802
▁ow	-6803
:27	-6804
▁Oferta	-6805
tanci	-6806
Tu	-6807
▁39	-6808
EB	-6809
świe	-6810
▁Bank	-6811
szuka	-6812
▁rozpoczyna	-6813
▁założ	-6814
▁stomato	-6815
:43	-6816
▁43	-6817
łoby	-6818
:36	-6819
▁dobrym	-6820
▁ręce	-6821
:23	-6822
▁Uniwersytecie	-6823
▁naczy	-6824
nieść	-6825
▁musimy	-6826
▁wakacje	-6827
ORT	-6828
:04	-6829
Pi	-6830
▁Wystar	-6831
▁frag	-6832
▁jednostki	-6833
La	-6834
▁Can	-6835
▁stali	-6836
--------	-6837
▁wolno	-6838
▁Radio	-6839
▁aler	-6840
niowe	-6841
▁skórę	-6842
:33	-6843
▁Dan	-6844
:07	-6845
▁uka	-6846
▁Ham	-6847
▁Lan	-6848
▁przys	-6849
▁nu	-6850
▁1989	-6851
▁prezent	-6852
:37	-6853
:26	-6854
▁Gwia	-6855
:29	-6856
▁zawodników	-6857
-17	-6858
▁1993	-6859
:08	-6860
.2016	-6861
▁kurs	-6862
:38	-6863
▁sukce	-6864
▁Jesteśmy	-6865
▁idzie	-6866
▁pazno	-6867
▁bezpieczeństwo	-6868
▁800	-6869
DF	-6870
▁Anglii	-6871
loguj	-6872
▁Komenta	-6873
:31	-6874
▁znaczenie	-6875
:06	-6876
uj	-6877
▁wywo	-6878
▁Jacek	-6879
▁sę	-6880
:42	-6881
▁pręd	-6882
nują	-6883
▁ist	-6884
tał	-6885
cką	-6886
▁rolni	-6887
▁metody	-6888
łku	-6889
:09	-6890
▁żu	-6891
kres	-6892
▁obszarze	-6893
ret	-6894
szne	-6895
▁ukaza	-6896
.).	-6897
tycznie	-6898
▁Nowym	-6899
:44	-6900
▁funda	-6901
▁napo	-6902
macnia	-6903
miana	-6904
▁drewna	-6905
▁alu	-6906
:48	-6907
Ne	-6908
,"	-6909
wna	-6910
–1998	-6911
:34	-6912
▁urucho	-6913
▁Pracy	-6914
wid	-6915
▁Pierwsze	-6916
hop	-6917
▁Katarzyna	-6918
zjum	-6919
▁br	-6920
▁najwyższej	-6921
:56	-6922
▁cyklu	-6923
fan	-6924
▁pta	-6925
▁Kiel	-6926
▁wpisa	-6927
▁parking	-6928
▁Chce	-6929
▁Możesz	-6930
żki	-6931
▁macie	-6932
▁roli	-6933
▁Zespo	-6934
▁instalacji	-6935
:53	-6936
▁8,	-6937
unki	-6938
:49	-6939
:52	-6940
▁jakiej	-6941
polskim	-6942
łowę	-6943
:46	-6944
▁drogą	-6945
▁projektów	-6946
▁spotkań	-6947
▁szla	-6948
:58	-6949
▁spacer	-6950
▁żyw	-6951
▁Zawo	-6952
zdrawiam	-6953
▁ligi	-6954
▁Wiadomości	-6955
dzać	-6956
:54	-6957
▁dużych	-6958
▁światła	-6959
omet	-6960
▁koło	-6961
:41	-6962
▁kal	-6963
▁Przygo	-6964
▁warunków	-6965
▁nasi	-6966
▁przepisy	-6967
tarza	-6968
▁pochodzenia	-6969
jak	-6970
.5	-6971
▁zanie	-6972
ńców	-6973
▁uz	-6974
▁Komite	-6975
matyczne	-6976
znesu	-6977
▁kursy	-6978
lio	-6979
▁kwar	-6980
▁doświadczenia	-6981
▁tabli	-6982
ZX	-6983
urea	-6984
▁zwraca	-6985
lnymi	-6986
(-	-6987
:47	-6988
▁pers	-6989
▁przechowy	-6990
▁Micro	-6991
▁wykonana	-6992
emo	-6993
▁chcemy	-6994
▁znajo	-6995
zowany	-6996
:39	-6997
▁ilu	-6998
▁Er	-6999
▁Zim	-7000
▁Uch	-7001
Su	-7002
▁społeczności	-7003
:51	-7004
▁kas	-7005
▁mecze	-7006
▁otwiera	-7007
▁własne	-7008
▁Ab	-7009
styczny	-7010
▁odpowiednie	-7011
wentual	-7012
▁powstał	-7013
ting	-7014
box	-7015
▁śli	-7016
ip	-7017
-30	-7018
▁Gatu	-7019
▁utra	-7020
▁niezna	-7021
cieka	-7022
▁Opublikowano	-7023
-16	-7024
▁Wypo	-7025
▁egza	-7026
▁posiadają	-7027
kuj	-7028
▁rozwiązań	-7029
Pra	-7030
▁Dodane	-7031
▁korona	-7032
▁król	-7033
▁pana	-7034
▁inżynie	-7035
nięcia	-7036
rodzenie	-7037
▁Polecam	-7038
:57	-7039
seł	-7040
▁czekola	-7041
szem	-7042
ming	-7043
▁2017,	-7044
▁kawa	-7045
czal	-7046
Polska	-7047
▁japo	-7048
▁stopniu	-7049
bora	-7050
▁dźwię	-7051
▁ludności	-7052
▁niezwyk	-7053
▁właściwości	-7054
▁wilgo	-7055
▁odbył	-7056
▁powró	-7057
ńską	-7058
▁spotyka	-7059
▁AC	-7060
▁Mężczy	-7061
letnie	-7062
▁Dzisiaj	-7063
MP	-7064
▁wojnie	-7065
cisk	-7066
czeństwa	-7067
▁wóz	-7068
cial	-7069
ńcy	-7070
▁Został	-7071
łk	-7072
▁Ok	-7073
▁portal	-7074
▁naro	-7075
▁Rodzi	-7076
czniki	-7077
▁wykonany	-7078
▁układu	-7079
▁emi	-7080
▁powyżej	-7081
▁OD	-7082
▁ol	-7083
tychmiast	-7084
▁gene	-7085
▁tanie	-7086
ANIE	-7087
▁przesta	-7088
▁mały	-7089
▁tery	-7090
▁kot	-7091
trwa	-7092
▁Staro	-7093
▁ślą	-7094
Roz	-7095
▁prezydenta	-7096
fla	-7097
-7	-7098
▁zaledwie	-7099
nięcie	-7100
▁zbiera	-7101
▁każda	-7102
▁monitor	-7103
▁Domi	-7104
▁śnia	-7105
▁oprócz	-7106
▁Art	-7107
▁wysokość	-7108
▁Stan	-7109
▁rzymskokatoli	-7110
▁Zbi	-7111
▁iP	-7112
▁von	-7113
▁fol	-7114
ms	-7115
▁znowu	-7116
▁ZSRR	-7117
mowę	-7118
▁zdrowo	-7119
▁mapy	-7120
▁ciąży	-7121
TC	-7122
▁atrakcji	-7123
▁dzieje	-7124
▁pio	-7125
▁Emi	-7126
jnie	-7127
▁zazwyczaj	-7128
kimi	-7129
Mar	-7130
oke	-7131
▁Biel	-7132
ters	-7133
czonej	-7134
bet	-7135
dzimy	-7136
gór	-7137
teligen	-7138
▁spowodowa	-7139
jnik	-7140
▁konsek	-7141
▁miejscach	-7142
formy	-7143
▁Książka	-7144
ZS	-7145
ander	-7146
▁VI	-7147
▁kupu	-7148
dzania	-7149
▁Cieka	-7150
▁Prezen	-7151
▁Opera	-7152
▁−	-7153
▁formy	-7154
riu	-7155
▁Mistrz	-7156
▁pozycjon	-7157
koje	-7158
▁start	-7159
▁zdaniem	-7160
▁bło	-7161
▁bym	-7162
Sta	-7163
▁sej	-7164
▁Należy	-7165
▁zwiększa	-7166
▁Cel	-7167
▁Samsung	-7168
pital	-7169
▁10,	-7170
zyjne	-7171
▁Ani	-7172
nikami	-7173
▁Hand	-7174
lonia	-7175
nowo	-7176
towym	-7177
mana	-7178
▁stawia	-7179
▁upa	-7180
▁baweł	-7181
stronomi	-7182
żyła	-7183
TER	-7184
bki	-7185
▁Bogu	-7186
czką	-7187
czonym	-7188
frastru	-7189
▁poe	-7190
▁poziomu	-7191
▁nawil	-7192
▁znany	-7193
/10	-7194
róg	-7195
▁powietrz	-7196
▁kultura	-7197
Lo	-7198
▁1,5	-7199
bert	-7200
▁ogóle	-7201
▁Przedsiębior	-7202
dność	-7203
▁Szczecin	-7204
▁sięga	-7205
▁AB	-7206
▁biu	-7207
▁minima	-7208
▁przyby	-7209
▁Strze	-7210
pry	-7211
▁edycja	-7212
Da	-7213
▁Chry	-7214
prawi	-7215
▁zadań	-7216
▁przynajmniej	-7217
▁portalu	-7218
▁Brytanii	-7219
trzymuje	-7220
ris	-7221
▁Łukasz	-7222
wny	-7223
łania	-7224
▁Sing	-7225
▁opieku	-7226
org	-7227
▁(7	-7228
wiga	-7229
▁46	-7230
▁regiona	-7231
▁Oficja	-7232
ull	-7233
niona	-7234
cument	-7235
choty	-7236
▁spek	-7237
cyna	-7238
cona	-7239
▁Świą	-7240
▁wsparcie	-7241
▁montaż	-7242
▁Grzegorz	-7243
▁hiszpa	-7244
▁rol	-7245
▁szczegóły	-7246
▁Sek	-7247
▁Aga	-7248
▁upo	-7249
tno	-7250
▁spod	-7251
▁Rozpo	-7252
▁Ponie	-7253
▁wywia	-7254
▁Katalog	-7255
▁biuro	-7256
▁sił	-7257
▁GB	-7258
▁Prowa	-7259
woz	-7260
▁wszelkie	-7261
▁ulubio	-7262
▁moich	-7263
▁piękne	-7264
KM	-7265
chodu	-7266
▁CO	-7267
czytaj	-7268
▁znów	-7269
lice	-7270
▁Hiszpanii	-7271
▁udziela	-7272
▁plu	-7273
▁Pią	-7274
puszcza	-7275
▁Insta	-7276
▁zarejestrowa	-7277
▁weekend	-7278
▁wynajem	-7279
ston	-7280
▁zachęca	-7281
▁głównego	-7282
▁ciśnie	-7283
▁imię	-7284
▁Materiał	-7285
▁zachodni	-7286
56	-7287
▁san	-7288
twiej	-7289
mel	-7290
▁tydzień	-7291
tką	-7292
ściem	-7293
▁środki	-7294
▁chro	-7295
▁specjalisty	-7296
wiecień	-7297
TR	-7298
niom	-7299
cząc	-7300
▁dawna	-7301
tent	-7302
▁1975–1998	-7303
▁syl	-7304
▁Lublin	-7305
▁smu	-7306
▁Ostatnio	-7307
dge	-7308
dzkiego	-7309
czonego	-7310
▁twoje	-7311
▁Opa	-7312
lecia	-7313
lokaliz	-7314
▁Techno	-7315
▁seku	-7316
▁pojazdów	-7317
▁este	-7318
▁szlach	-7319
▁(4)	-7320
działem	-7321
▁waka	-7322
▁auta	-7323
▁biura	-7324
▁spoj	-7325
▁nazwy	-7326
wuj	-7327
▁Trzy	-7328
▁stało	-7329
▁Pobierz	-7330
młod	-7331
▁powstała	-7332
▁pobra	-7333
▁świąte	-7334
strak	-7335
▁Paw	-7336
▁budowę	-7337
▁ostro	-7338
▁Bre	-7339
▁spi	-7340
▁gminę	-7341
▁Kowa	-7342
cus	-7343
▁Aleksandra	-7344
HP	-7345
sji	-7346
▁Tek	-7347
prz	-7348
tnik	-7349
tycznym	-7350
▁Augu	-7351
▁język	-7352
metry	-7353
Vi	-7354
▁źródło	-7355
▁Jakub	-7356
▁zapisa	-7357
▁sumie	-7358
▁patro	-7359
▁najważniejsze	-7360
vy	-7361
▁wypowie	-7362
▁MB	-7363
dniu	-7364
▁kierowcy	-7365
▁prawdopodobnie	-7366
▁krak	-7367
stel	-7368
▁kos	-7369
onal	-7370
▁koście	-7371
GR	-7372
▁wynosiła	-7373
▁maszyn	-7374
block	-7375
▁Rumu	-7376
▁praco	-7377
▁kło	-7378
▁przetwarza	-7379
▁Urzędu	-7380
fera	-7381
▁Sal	-7382
▁Sha	-7383
Produ	-7384
▁64	-7385
▁Narodowego	-7386
▁ekran	-7387
▁swego	-7388
▁ukry	-7389
▁pm	-7390
▁techniczne	-7391
▁USD	-7392
▁konferencji	-7393
rządzenia	-7394
▁Kategoria	-7395
▁Suk	-7396
▁Jeszcze	-7397
▁ciepła	-7398
nny	-7399
lit	-7400
▁skom	-7401
▁dorosłych	-7402
▁Szczeci	-7403
▁Wyż	-7404
▁własnej	-7405
dzka	-7406
mann	-7407
sztą	-7408
noty	-7409
skę	-7410
▁wchodzą	-7411
▁Takie	-7412
liki	-7413
lizm	-7414
▁alterna	-7415
▁wiesz	-7416
▁Mało	-7417
▁karierę	-7418
dziesią	-7419
▁Polacy	-7420
Go	-7421
▁wyróżnia	-7422
▁połączenie	-7423
▁siły	-7424
▁Zda	-7425
fli	-7426
▁filozo	-7427
bka	-7428
▁95	-7429
wami	-7430
▁Ul	-7431
ise	-7432
lowy	-7433
▁pozba	-7434
▁telefoni	-7435
▁wpisu	-7436
▁wro	-7437
▁godzinach	-7438
▁plus	-7439
▁Natura	-7440
▁rela	-7441
▁magne	-7442
▁Absolwenci	-7443
das	-7444
ht	-7445
('	-7446
▁uwzglę	-7447
▁list	-7448
lian	-7449
▁miesiące	-7450
▁Kru	-7451
▁regionu	-7452
▁specy	-7453
▁odbywa	-7454
▁obszar	-7455
▁wykonanie	-7456
▁miast	-7457
▁zaplan	-7458
▁zago	-7459
▁Brazy	-7460
▁Bas	-7461
mować	-7462
vin	-7463
▁umy	-7464
▁droga	-7465
OZ	-7466
har	-7467
▁Davi	-7468
▁Sku	-7469
▁rozumie	-7470
EJ	-7471
▁1980	-7472
▁Świet	-7473
sznie	-7474
▁składzie	-7475
▁zakupy	-7476
ION	-7477
▁komfort	-7478
▁sol	-7479
▁set	-7480
▁diety	-7481
▁włó	-7482
▁papier	-7483
▁kontroli	-7484
ult	-7485
▁wielkości	-7486
kładka	-7487
▁epi	-7488
char	-7489
▁Ogólno	-7490
wcze	-7491
▁Eu	-7492
▁powięk	-7493
▁mazowie	-7494
▁poznać	-7495
▁dzwo	-7496
łgar	-7497
▁miesię	-7498
talia	-7499
▁160	-7500
szeni	-7501
▁odno	-7502
▁Promo	-7503
tkami	-7504
▁Pło	-7505
▁49	-7506
prost	-7507
▁ostatnim	-7508
▁połączenia	-7509
▁odbior	-7510
▁głosów	-7511
▁zamieszka	-7512
▁Mil	-7513
▁potę	-7514
▁prysz	-7515
czyły	-7516
ceń	-7517
▁czytelni	-7518
▁musiał	-7519
▁Ir	-7520
col	-7521
▁🙂	-7522
▁okresu	-7523
karze	-7524
łac	-7525
tuga	-7526
if	-7527
alny	-7528
▁Danie	-7529
▁recep	-7530
▁mate	-7531
GV	-7532
▁ów	-7533
rzona	-7534
podległości	-7535
ieł	-7536
▁1988	-7537
komu	-7538
CO	-7539
▁rozpa	-7540
▁muzyka	-7541
qui	-7542
lor	-7543
▁dynami	-7544
czania	-7545
ness	-7546
ов	-7547
▁wam	-7548
▁eksplo	-7549
mierza	-7550
szyb	-7551
tas	-7552
tys	-7553
▁transportu	-7554
tale	-7555
▁wrażenie	-7556
▁ogród	-7557
▁Szwajcar	-7558
▁kadencji	-7559
lator	-7560
▁budynek	-7561
habili	-7562
puszcz	-7563
▁wyświetla	-7564
EX	-7565
▁€	-7566
▁Magdale	-7567
▁modu	-7568
▁zali	-7569
▁Zasłu	-7570
back	-7571
▁dło	-7572
▁ziem	-7573
▁Kwia	-7574
rony	-7575
imi	-7576
▁Łu	-7577
▁zbro	-7578
▁er	-7579
▁Joanna	-7580
▁PiS	-7581
▁wydaj	-7582
naście	-7583
▁Dis	-7584
non	-7585
lazł	-7586
nicze	-7587
▁mojego	-7588
▁zuży	-7589
▁systemie	-7590
▁pary	-7591
zor	-7592
hb	-7593
▁pracowni	-7594
▁uniwersa	-7595
bela	-7596
▁krajów	-7597
▁logi	-7598
▁czasów	-7599
derni	-7600
▁częścią	-7601
▁zlokaliz	-7602
▁ubieg	-7603
▁Natomiast	-7604
▁atrakcje	-7605
nium	-7606
miona	-7607
▁Syl	-7608
▁przepisów	-7609
▁Długość	-7610
popular	-7611
Au	-7612
▁Ocena	-7613
DR	-7614
▁wyjazd	-7615
▁natychmiast	-7616
▁oby	-7617
▁Wrze	-7618
▁całkiem	-7619
▁różnorod	-7620
▁projekty	-7621
▁ścią	-7622
▁Saint	-7623
▁Trzeba	-7624
▁gospo	-7625
▁Wiele	-7626
▁Mona	-7627
▁Pił	-7628
▁Dziennik	-7629
▁wzór	-7630
▁chętnie	-7631
owało	-7632
stian	-7633
53	-7634
▁del	-7635
kcję	-7636
hen	-7637
▁cenę	-7638
▁specjalne	-7639
matyka	-7640
▁zostaje	-7641
▁napię	-7642
▁położony	-7643
▁uzyskał	-7644
ville	-7645
▁powierzchnia	-7646
▁odbyła	-7647
▁zadebiutował	-7648
karpa	-7649
▁większe	-7650
dol	-7651
mych	-7652
▁Chor	-7653
▁dystrybu	-7654
pt	-7655
ćmi	-7656
▁wg	-7657
▁zapach	-7658
▁myślą	-7659
▁Policja	-7660
▁służby	-7661
gene	-7662
ords	-7663
▁Róż	-7664
▁niedaw	-7665
bek	-7666
wind	-7667
▁zastosowanie	-7668
▁granicy	-7669
WA	-7670
▁News	-7671
▁Wystarczy	-7672
▁częściej	-7673
▁Wspól	-7674
▁serialu	-7675
▁Jes	-7676
▁Serwis	-7677
▁procent	-7678
▁Open	-7679
dzkiej	-7680
▁Rę	-7681
▁oświad	-7682
LI	-7683
▁czaso	-7684
▁oli	-7685
cea	-7686
ye	-7687
tta	-7688
▁sos	-7689
▁kawy	-7690
▁zgroma	-7691
szan	-7692
czeństwo	-7693
▁przetar	-7694
▁autobu	-7695
▁Kawa	-7696
lamin	-7697
ranie	-7698
▁Ole	-7699
▁iden	-7700
▁sztuka	-7701
▁makija	-7702
▁Użytk	-7703
▁ono	-7704
wców	-7705
So	-7706
▁wewnątrz	-7707
atle	-7708
ień	-7709
▁Powierzchnia	-7710
ball	-7711
▁niektóre	-7712
▁diecezji	-7713
▁igrzyskach	-7714
▁drugiego	-7715
▁Produkty	-7716
▁rys	-7717
▁wodo	-7718
▁znajdowa	-7719
dztwo	-7720
▁Ilość	-7721
▁Zako	-7722
▁Zbignie	-7723
▁zakończeniu	-7724
▁MP	-7725
▁multi	-7726
gli	-7727
niosła	-7728
▁Niektó	-7729
ward	-7730
▁Net	-7731
▁wor	-7732
▁Tri	-7733
▁Club	-7734
▁Mul	-7735
ART	-7736
▁9,	-7737
▁Matki	-7738
▁Zdjęcia	-7739
łudnie	-7740
ńcz	-7741
▁służą	-7742
▁sprawę	-7743
▁mieści	-7744
▁przepis	-7745
pion	-7746
▁znaczy	-7747
▁duża	-7748
▁informuje	-7749
-14	-7750
▁witry	-7751
▁Reje	-7752
▁wyjątkowo	-7753
▁specjalnie	-7754
▁aro	-7755
▁zapobiega	-7756
▁110	-7757
▁Blo	-7758
▁ewentual	-7759
rena	-7760
For	-7761
▁zapowie	-7762
▁wkrótce	-7763
▁grupie	-7764
Ii	-7765
▁szczęśli	-7766
▁łat	-7767
▁liczne	-7768
media	-7769
▁przesła	-7770
spy	-7771
mium	-7772
fini	-7773
▁element	-7774
▁drużyn	-7775
▁szk	-7776
▁stoi	-7777
▁śnie	-7778
▁uchwy	-7779
metrów	-7780
zka	-7781
▁dodał	-7782
▁nastąpi	-7783
ges	-7784
▁wyobra	-7785
▁fu	-7786
▁spotkaniu	-7787
▁odpowiedź	-7788
▁41	-7789
AF	-7790
▁num	-7791
pliwości	-7792
▁Gmina	-7793
▁Litera	-7794
▁Tego	-7795
▁Val	-7796
▁wierz	-7797
▁przeży	-7798
Al	-7799
ast	-7800
▁Woj	-7801
▁Trwa	-7802
pływ	-7803
▁Stanisława	-7804
▁zwrócić	-7805
▁aktualizacja	-7806
▁zmienić	-7807
ram	-7808
▁Dosta	-7809
▁Nagrody	-7810
▁Universi	-7811
▁Koło	-7812
▁Pierwsza	-7813
▁Rzecz	-7814
rzono	-7815
▁oceny	-7816
ległość	-7817
document	-7818
▁leczenia	-7819
▁47	-7820
▁mebli	-7821
czasem	-7822
▁wstęp	-7823
▁niemiecki	-7824
press	-7825
▁okna	-7826
Hz	-7827
":"	-7828
▁pl	-7829
▁Produkt	-7830
logiczny	-7831
▁ochron	-7832
▁prepara	-7833
▁potrzebne	-7834
▁zmy	-7835
02	-7836
yer	-7837
▁Plan	-7838
idy	-7839
▁dobrego	-7840
YX	-7841
▁średniej	-7842
▁zamieszkiwało	-7843
bienia	-7844
▁autora	-7845
stycznych	-7846
wencji	-7847
▁ciało	-7848
mień	-7849
▁związani	-7850
▁Hel	-7851
legro	-7852
▁kształt	-7853
▁Start	-7854
chnie	-7855
▁Radzie	-7856
▁budynków	-7857
▁polu	-7858
▁lodów	-7859
▁lapto	-7860
▁chor	-7861
dzkim	-7862
nerzy	-7863
bię	-7864
▁Fundu	-7865
▁(8	-7866
▁Osoby	-7867
ield	-7868
▁Swo	-7869
▁2022	-7870
▁DZ	-7871
▁olimpijskich	-7872
▁nadaje	-7873
▁Smo	-7874
–200	-7875
▁Krzyż	-7876
▁producentów	-7877
▁największych	-7878
▁odpad	-7879
Kon	-7880
czość	-7881
▁większą	-7882
▁Turysty	-7883
▁mnó	-7884
▁Pru	-7885
▁Poland	-7886
▁Rado	-7887
merica	-7888
jewo	-7889
▁Orderu	-7890
xa	-7891
ring	-7892
▁Kontakt	-7893
▁wesele	-7894
▁Medali	-7895
▁dokumentów	-7896
tkach	-7897
Ni	-7898
▁SS	-7899
58	-7900
gres	-7901
▁podję	-7902
minu	-7903
czami	-7904
▁PRO	-7905
▁minera	-7906
index	-7907
▁Posta	-7908
▁podatku	-7909
▁Amerykańskie	-7910
▁kara	-7911
▁KL	-7912
▁wenty	-7913
niesienia	-7914
polskiego	-7915
▁powoduje	-7916
▁Więk	-7917
▁scho	-7918
▁wyborach	-7919
▁Zasa	-7920
soft	-7921
▁znakomi	-7922
▁rozm	-7923
▁56	-7924
▁Ran	-7925
▁wynag	-7926
▁zwyczaj	-7927
łkę	-7928
▁zjawi	-7929
▁najmłod	-7930
▁systemów	-7931
▁52	-7932
dap	-7933
▁Miło	-7934
▁następujące	-7935
▁wiedzą	-7936
▁dobrą	-7937
▁wysyła	-7938
▁zasłu	-7939
▁Psy	-7940
52	-7941
▁wir	-7942
▁Pozy	-7943
Ty	-7944
▁Najwięk	-7945
▁nieba	-7946
▁kore	-7947
▁Dane	-7948
▁marketing	-7949
▁naturalne	-7950
▁AN	-7951
▁Bezpie	-7952
▁skon	-7953
bić	-7954
▁wziąć	-7955
▁koncert	-7956
wio	-7957
▁osiąga	-7958
▁Gda	-7959
▁stosu	-7960
▁programie	-7961
kracza	-7962
▁muzyczne	-7963
boga	-7964
▁obsługa	-7965
▁Fry	-7966
chach	-7967
jechał	-7968
inga	-7969
▁Amerykańscy	-7970
▁rezu	-7971
żąda	-7972
▁iz	-7973
▁Miejsce	-7974
sada	-7975
▁serdecznie	-7976
▁promocji	-7977
przewo	-7978
▁okazję	-7979
▁silnik	-7980
rur	-7981
▁zaufa	-7982
▁wodą	-7983
bami	-7984
▁Funk	-7985
▁Urzę	-7986
▁niewie	-7987
▁trzecie	-7988
▁Najwyż	-7989
▁Budow	-7990
▁dziesię	-7991
▁zyska	-7992
▁Osie	-7993
tokrzy	-7994
▁Reda	-7995
dzają	-7996
▁śla	-7997
▁face	-7998
▁Cal	-7999
▁obiekty	-8000
57	-8001
luje	-8002
toni	-8003
▁zaby	-8004
▁Małgorzata	-8005
▁ogląda	-8006
▁Kami	-8007
▁zasię	-8008
▁twarz	-8009
▁świąty	-8010
▁codziennie	-8011
ky	-8012
▁syna	-8013
SW	-8014
▁Gdańsku	-8015
mum	-8016
mował	-8017
tację	-8018
▁każdą	-8019
tacje	-8020
▁wesel	-8021
▁zobowiąza	-8022
▁premiera	-8023
▁fundu	-8024
▁Przemy	-8025
▁diagno	-8026
▁czynności	-8027
▁Moto	-8028
▁Srebr	-8029
▁54	-8030
-13	-8031
żę	-8032
▁Bet	-8033
▁głównej	-8034
▁drukar	-8035
▁ogólno	-8036
▁przeszedł	-8037
CY	-8038
▁brzu	-8039
▁wydane	-8040
▁3-	-8041
▁58	-8042
dowym	-8043
▁wspomaga	-8044
▁konkursie	-8045
▁pierwo	-8046
riusz	-8047
▁Twojej	-8048
▁Pal	-8049
▁(20	-8050
zją	-8051
▁Dę	-8052
top	-8053
▁smo	-8054
▁Aktuali	-8055
▁den	-8056
▁aranża	-8057
▁Konkurs	-8058
▁tygodnia	-8059
▁Ama	-8060
gowej	-8061
▁wielkie	-8062
▁Em	-8063
▁Fla	-8064
▁fotografi	-8065
▁Organiza	-8066
▁Straży	-8067
eu	-8068
▁znać	-8069
▁pasażer	-8070
▁Ger	-8071
▁mil	-8072
urt	-8073
▁140	-8074
▁meta	-8075
▁rezulta	-8076
▁Nawet	-8077
żonej	-8078
▁sklepów	-8079
ide	-8080
▁Była	-8081
▁integra	-8082
▁dodaje	-8083
▁link	-8084
garnia	-8085
szał	-8086
UG	-8087
▁zewnątrz	-8088
IEL	-8089
▁Og	-8090
▁eki	-8091
▁King	-8092
noni	-8093
wamy	-8094
▁leczenie	-8095
SKIE	-8096
▁artykuły	-8097
▁11.	-8098
▁poinform	-8099
},	-8100
▁Książki	-8101
wczych	-8102
▁gor	-8103
sal	-8104
wiera	-8105
▁tury	-8106
▁Przewodni	-8107
▁SA	-8108
▁podsu	-8109
▁pomoże	-8110
▁Białorusi	-8111
▁odpo	-8112
▁własną	-8113
▁wydarzeń	-8114
▁zaczął	-8115
scypli	-8116
▁zaw	-8117
▁Armii	-8118
▁serce	-8119
bas	-8120
wiar	-8121
▁użytku	-8122
▁powieści	-8123
▁Kle	-8124
rei	-8125
▁Edy	-8126
▁Top	-8127
nkach	-8128
dob	-8129
niejszym	-8130
▁Nasz	-8131
▁pracuje	-8132
▁kibi	-8133
towanych	-8134
cjo	-8135
▁elimina	-8136
Ele	-8137
▁prowadzenia	-8138
▁obrazu	-8139
▁Regiona	-8140
▁właściwie	-8141
▁odsło	-8142
▁druga	-8143
▁transa	-8144
▁szczególności	-8145
▁Biznes	-8146
Ca	-8147
ANIA	-8148
▁Cra	-8149
tana	-8150
kse	-8151
▁skóra	-8152
▁Nowoczes	-8153
ee	-8154
▁Cham	-8155
▁pokoi	-8156
▁wywoła	-8157
▁SC	-8158
▁Norwe	-8159
▁Mateusz	-8160
stia	-8161
▁wyprodu	-8162
▁Doro	-8163
▁Rozmiar	-8164
▁polityk	-8165
cyklo	-8166
uth	-8167
▁zarządzania	-8168
▁Igrzyskach	-8169
rant	-8170
sę	-8171
dują	-8172
▁grał	-8173
▁dostępnych	-8174
bó	-8175
szość	-8176
▁odczu	-8177
▁Cia	-8178
lom	-8179
▁krą	-8180
rzut	-8181
ford	-8182
▁lekar	-8183
▁gatunków	-8184
▁chrześcija	-8185
▁sąsie	-8186
▁momentu	-8187
▁konstrukcji	-8188
▁bazy	-8189
▁kawał	-8190
▁debiu	-8191
▁dotar	-8192
nit	-8193
▁radi	-8194
▁stała	-8195
▁tj	-8196
▁Obraz	-8197
▁1984	-8198
▁Oferujemy	-8199
▁1944	-8200
▁Rosja	-8201
▁ciebie	-8202
▁Oli	-8203
▁Parafia	-8204
▁powstania	-8205
▁Apple	-8206
▁obrę	-8207
▁teatra	-8208
▁kuchnia	-8209
▁rzeź	-8210
▁1987	-8211
▁lubię	-8212
▁()	-8213
▁Akcesoria	-8214
▁popu	-8215
▁narzędzia	-8216
▁up	-8217
lizację	-8218
▁formula	-8219
ben	-8220
▁Andrze	-8221
▁Tag	-8222
▁rozgrywek	-8223
▁wodę	-8224
▁zasko	-8225
▁stabil	-8226
▁Najnow	-8227
▁różnego	-8228
▁sali	-8229
▁sprawa	-8230
▁Proble	-8231
▁zawodów	-8232
▁dyspozycji	-8233
▁napa	-8234
▁nadru	-8235
▁okien	-8236
aa	-8237
▁Rezer	-8238
stracja	-8239
wnego	-8240
liam	-8241
▁53	-8242
▁usły	-8243
▁koszt	-8244
▁prosty	-8245
▁najpierw	-8246
▁pacjentów	-8247
▁dzielnicy	-8248
ndard	-8249
▁Fin	-8250
▁teni	-8251
karz	-8252
ując	-8253
owaną	-8254
▁leś	-8255
▁otrzymy	-8256
▁publicznej	-8257
window	-8258
▁zmiana	-8259
▁walu	-8260
▁Języ	-8261
formowa	-8262
▁opłaty	-8263
▁poby	-8264
▁mężczyzna	-8265
▁obcią	-8266
pan	-8267
dynek	-8268
▁dach	-8269
▁Orderem	-8270
lery	-8271
myka	-8272
dłuż	-8273
▁układa	-8274
▁krajach	-8275
dzonej	-8276
▁Członkowie	-8277
szona	-8278
▁logo	-8279
▁zatrudni	-8280
▁zanim	-8281
qua	-8282
▁var	-8283
▁12,	-8284
▁>>	-8285
▁PZ	-8286
praca	-8287
▁milionów	-8288
▁Adres	-8289
▁zajęć	-8290
hr	-8291
CIA	-8292
onem	-8293
IER	-8294
taż	-8295
▁brązowy	-8296
▁optyma	-8297
▁komunikacji	-8298
inte	-8299
▁stać	-8300
▁kwiaty	-8301
▁działki	-8302
▁własnych	-8303
▁wojen	-8304
▁Narodowej	-8305
▁zamówienie	-8306
han	-8307
▁pocią	-8308
▁um	-8309
styczna	-8310
▁(...)	-8311
▁ojciec	-8312
▁Działka	-8313
▁skró	-8314
▁Partii	-8315
▁Kan	-8316
▁admin	-8317
▁przedłu	-8318
czyński	-8319
▁samorząd	-8320
▁węd	-8321
▁podkreśli	-8322
bru	-8323
▁konkurencji	-8324
dzisz	-8325
▁IS	-8326
▁nazwą	-8327
czce	-8328
▁Gazeta	-8329
▁zawodach	-8330
▁OF	-8331
▁Józefa	-8332
adblock	-8333
▁mogły	-8334
▁środku	-8335
▁niezbędne	-8336
▁precy	-8337
żliwość	-8338
▁tytułu	-8339
%)	-8340
.2015	-8341
▁Artykuły	-8342
▁wystąpił	-8343
▁Pła	-8344
posto	-8345
▁obud	-8346
▁down	-8347
rzeniem	-8348
IST	-8349
▁Rena	-8350
▁Biuro	-8351
jską	-8352
▁Mapa	-8353
▁Komen	-8354
tacza	-8355
strzem	-8356
Fa	-8357
▁Rec	-8358
koju	-8359
▁Usługi	-8360
▁jednostka	-8361
▁wyposażenie	-8362
wien	-8363
ąd	-8364
Spo	-8365
▁samochodowe	-8366
AZ	-8367
▁inni	-8368
Con	-8369
▁dofinans	-8370
▁złoty	-8371
▁stanowiska	-8372
klej	-8373
▁Mój	-8374
▁panie	-8375
▁Interna	-8376
ue	-8377
▁1920	-8378
Kom	-8379
tystyki	-8380
*,	-8381
▁silnika	-8382
strów	-8383
▁przekro	-8384
▁historię	-8385
▁sytuacja	-8386
▁el	-8387
▁Spi	-8388
▁wpływa	-8389
▁Podla	-8390
▁konserwa	-8391
▁rozmawia	-8392
szar	-8393
▁rocz	-8394
sI	-8395
dnicy	-8396
59	-8397
▁Jarosław	-8398
▁klubie	-8399
mem	-8400
▁WP	-8401
▁DVD	-8402
▁Moje	-8403
Lu	-8404
zki	-8405
▁terminie	-8406
▁Medaliści	-8407
▁tuż	-8408
▁AT	-8409
dzieli	-8410
▁Wiki	-8411
▁głównym	-8412
▁uprawia	-8413
▁ukrai	-8414
dziesz	-8415
▁ukończył	-8416
();	-8417
▁Sos	-8418
▁kredyt	-8419
▁tez	-8420
.),	-8421
▁AK	-8422
▁ostatniej	-8423
cra	-8424
▁wymiar	-8425
tina	-8426
▁ojca	-8427
▁praktycznie	-8428
sper	-8429
▁urządzenie	-8430
▁Pozdrawiam	-8431
▁głu	-8432
lakty	-8433
▁wzor	-8434
▁1986	-8435
▁2,5	-8436
▁pobiera	-8437
▁Ża	-8438
▁Fan	-8439
▁lubel	-8440
NIA	-8441
▁pełne	-8442
żbie	-8443
▁wyszukiwar	-8444
▁początek	-8445
▁wiedzę	-8446
▁biorą	-8447
▁dedy	-8448
▁Geor	-8449
▁ciągle	-8450
▁Proje	-8451
waża	-8452
▁wypła	-8453
▁mro	-8454
▁Ostatnia	-8455
▁artykułów	-8456
pic	-8457
▁zmu	-8458
▁lepsze	-8459
hl	-8460
▁Rozwo	-8461
▁Główna	-8462
UJ	-8463
▁zakończył	-8464
▁Katowicach	-8465
▁czytaj	-8466
kujemy	-8467
▁Ziemi	-8468
▁lekarz	-8469
▁komin	-8470
▁gotów	-8471
▁móz	-8472
▁zasad	-8473
▁wybudowa	-8474
▁liczyć	-8475
sio	-8476
▁przesu	-8477
▁wniosek	-8478
Wszyst	-8479
▁dolarów	-8480
▁Los	-8481
▁gitara	-8482
▁wyka	-8483
▁toreb	-8484
▁lekarza	-8485
leniu	-8486
▁Lotni	-8487
-21	-8488
▁kluczowe	-8489
▁wykorzystać	-8490
bri	-8491
solu	-8492
lish	-8493
▁Choć	-8494
dawcy	-8495
PLN	-8496
tle	-8497
▁ł	-8498
▁znane	-8499
▁Twojego	-8500
▁Zgodnie	-8501
▁Restauracje	-8502
▁tegoro	-8503
▁koncep	-8504
▁przestęp	-8505
▁owa	-8506
▁Rock	-8507
▁Jack	-8508
▁Pokaż	-8509
▁akade	-8510
▁partii	-8511
▁rzę	-8512
▁pożyczki	-8513
▁certyfika	-8514
▁cerami	-8515
▁fun	-8516
pek	-8517
▁gromady	-8518
niczy	-8519
▁rodzinie	-8520
▁wiek	-8521
▁prezydent	-8522
▁budowlane	-8523
rego	-8524
▁Szero	-8525
▁manda	-8526
▁cała	-8527
▁Zi	-8528
pg	-8529
▁oczekiwania	-8530
▁trenin	-8531
▁wspomnia	-8532
sual	-8533
▁Bydgoszcz	-8534
▁pośrednictwem	-8535
▁więzie	-8536
▁parę	-8537
▁króla	-8538
▁mono	-8539
tyczną	-8540
▁żona	-8541
▁nauczyciel	-8542
▁skutecznie	-8543
▁wzmoc	-8544
szeniu	-8545
▁muszę	-8546
▁+48	-8547
▁und	-8548
kingu	-8549
▁2016,	-8550
▁mld	-8551
▁Chrystu	-8552
żonego	-8553
▁Towarzystwa	-8554
▁wczes	-8555
▁pozostaje	-8556
▁dziećmi	-8557
▁rodzina	-8558
▁plasti	-8559
▁Ceny	-8560
▁Szczy	-8561
▁postępowania	-8562
dzkie	-8563
▁wychowa	-8564
▁West	-8565
▁Czu	-8566
▁wytwór	-8567
▁warsztaty	-8568
lama	-8569
▁Wier	-8570
▁którymi	-8571
▁temperatury	-8572
▁młod	-8573
PO	-8574
▁Doskona	-8575
()	-8576
▁bilety	-8577
pienie	-8578
▁nies	-8579
▁kwi	-8580
owniki	-8581
▁Ant	-8582
▁inwest	-8583
tum	-8584
▁Lubel	-8585
mowania	-8586
YT	-8587
▁pojazdu	-8588
▁podu	-8589
-2019	-8590
▁Barto	-8591
▁Pomoc	-8592
▁mala	-8593
▁publicznych	-8594
▁fal	-8595
rodzin	-8596
bez	-8597
▁Zasługi	-8598
▁HP	-8599
▁struktu	-8600
nastu	-8601
▁Meksy	-8602
▁poprawia	-8603
,...	-8604
▁Radom	-8605
▁drzew	-8606
▁święta	-8607
▁własnego	-8608
▁wytwarza	-8609
▁restauracje	-8610
▁postać	-8611
nitar	-8612
▁rapor	-8613
▁ste	-8614
▁użyciu	-8615
▁pomara	-8616
▁inteligen	-8617
▁wysokie	-8618
łąd	-8619
PG	-8620
▁lider	-8621
▁składników	-8622
źnia	-8623
bile	-8624
▁własnym	-8625
▁Sprze	-8626
▁niena	-8627
▁kompa	-8628
▁Zgłoś	-8629
ream	-8630
▁Marka	-8631
chodnia	-8632
cher	-8633
rowo	-8634
▁udo	-8635
▁dziedzinie	-8636
▁kondy	-8637
▁perspek	-8638
lla	-8639
▁filmie	-8640
War	-8641
▁los	-8642
▁Zwie	-8643
walifikowa	-8644
zdo	-8645
onda	-8646
▁12.	-8647
▁Czarny	-8648
▁prowadzenie	-8649
szyn	-8650
▁Cas	-8651
5/	-8652
▁Świętego	-8653
▁66	-8654
ild	-8655
▁drugą	-8656
▁znalazł	-8657
▁czegoś	-8658
▁Istnie	-8659
▁odwoła	-8660
irt	-8661
▁znaczą	-8662
óra	-8663
▁Ange	-8664
▁pewne	-8665
▁kontaktu	-8666
info	-8667
▁mnóstwo	-8668
▁lidze	-8669
▁rozmowy	-8670
trzeć	-8671
SK	-8672
ney	-8673
▁Bóg	-8674
słon	-8675
▁jab	-8676
▁Barce	-8677
Wa	-8678
BO	-8679
▁wywal	-8680
▁11,	-8681
▁wizer	-8682
▁Zarządu	-8683
dliwości	-8684
▁członek	-8685
cik	-8686
dagogi	-8687
▁Świe	-8688
▁POD	-8689
▁braku	-8690
NIK	-8691
OŚCI	-8692
▁grubo	-8693
▁zmniej	-8694
▁BMW	-8695
▁Południowej	-8696
''	-8697
ceum	-8698
▁modele	-8699
▁uczelni	-8700
▁używane	-8701
▁BR	-8702
cowa	-8703
ear	-8704
▁wzmacnia	-8705
stok	-8706
pot	-8707
▁życi	-8708
wano	-8709
▁(5)	-8710
▁zadanie	-8711
jnej	-8712
▁et	-8713
twor	-8714
▁Wą	-8715
▁Studio	-8716
▁Skład	-8717
▁sklepach	-8718
fony	-8719
▁Instytutu	-8720
▁pozostałe	-8721
tań	-8722
trów	-8723
▁ciasto	-8724
▁alkoholu	-8725
▁internecie	-8726
▁jakoś	-8727
óźniej	-8728
▁Wybierz	-8729
▁zbiór	-8730
▁juz	-8731
▁szer	-8732
dową	-8733
▁Janusz	-8734
pri	-8735
▁pil	-8736
▁Ameryki	-8737
▁wspom	-8738
kowskiego	-8739
▁Azji	-8740
▁wita	-8741
▁chcę	-8742
▁skór	-8743
cuje	-8744
▁Zapew	-8745
loga	-8746
▁1921	-8747
▁duch	-8748
▁nieprze	-8749
▁Nic	-8750
mnieć	-8751
▁cookie	-8752
▁czasami	-8753
▁równie	-8754
ACH	-8755
rywki	-8756
drze	-8757
▁faktycz	-8758
▁obserwa	-8759
gatu	-8760
▁kampanii	-8761
prawić	-8762
▁Kosz	-8763
▁zalu	-8764
▁pełnił	-8765
▁wybi	-8766
▁Ośrodek	-8767
▁Bli	-8768
▁Zwycię	-8769
▁Trip	-8770
pora	-8771
ezon	-8772
▁Eli	-8773
gatyw	-8774
cker	-8775
▁kształcie	-8776
▁podłą	-8777
WI	-8778
▁Raj	-8779
▁łatwiej	-8780
▁sprawdzi	-8781
zwo	-8782
▁chwil	-8783
▁funkcje	-8784
nge	-8785
▁kosmetyki	-8786
ex	-8787
▁Trans	-8788
▁legen	-8789
▁komputera	-8790
▁studi	-8791
▁nosi	-8792
▁idealne	-8793
▁ogni	-8794
▁2013,	-8795
▁2014,	-8796
ŁA	-8797
▁żadnego	-8798
nerem	-8799
jechać	-8800
▁odbi	-8801
▁Ochrony	-8802
▁Lw	-8803
(){	-8804
▁odzyska	-8805
▁widok	-8806
▁piłkarze	-8807
cowe	-8808
ensjona	-8809
▁Soli	-8810
▁stosowania	-8811
▁samochody	-8812
lonym	-8813
▁piosenki	-8814
szły	-8815
▁motory	-8816
▁Atra	-8817
▁Polityka	-8818
▁studiów	-8819
▁innej	-8820
▁Gor	-8821
▁łącznie	-8822
▁gabine	-8823
szli	-8824
▁Lis	-8825
tech	-8826
▁internetowe	-8827
▁podlega	-8828
▁1981	-8829
demia	-8830
▁łago	-8831
tia	-8832
gmina	-8833
▁procesu	-8834
▁Max	-8835
▁raj	-8836
▁Nar	-8837
▁Koście	-8838
▁niemow	-8839
▁ścież	-8840
▁Instytut	-8841
SM	-8842
▁dać	-8843
▁miejscem	-8844
▁hor	-8845
▁albu	-8846
sin	-8847
▁fotograf	-8848
▁południowo	-8849
wei	-8850
▁ofiar	-8851
▁liczy	-8852
Dla	-8853
tte	-8854
▁odnale	-8855
▁1985	-8856
▁Szkół	-8857
▁1972	-8858
▁zapowiada	-8859
żuteria	-8860
▁ustaw	-8861
▁Phi	-8862
▁1982	-8863
kował	-8864
Bar	-8865
▁Rozwoju	-8866
▁przewodniczą	-8867
▁uzależ	-8868
▁szam	-8869
▁łączy	-8870
▁nomina	-8871
▁Wybra	-8872
▁kariery	-8873
▁miałam	-8874
dże	-8875
visor	-8876
▁procedu	-8877
▁byłoby	-8878
05	-8879
▁Pamiętaj	-8880
▁Obiekty	-8881
Ob	-8882
rasta	-8883
–201	-8884
▁Moc	-8885
ziono	-8886
▁całość	-8887
▁57	-8888
▁Ple	-8889
Bay	-8890
▁Zaba	-8891
▁raba	-8892
nnych	-8893
słowie	-8894
bii	-8895
▁Stary	-8896
▁wykład	-8897
ep	-8898
clegi	-8899
▁przo	-8900
dkie	-8901
▁Prawa	-8902
▁przeby	-8903
▁700	-8904
wzię	-8905
kos	-8906
▁dol	-8907
matu	-8908
▁wsparcia	-8909
▁pięciu	-8910
▁obiekt	-8911
▁wzrostu	-8912
ror	-8913
szył	-8914
zesa	-8915
żowe	-8916
▁Krakowa	-8917
▁zdra	-8918
▁Spotkanie	-8919
mF	-8920
/4	-8921
chia	-8922
cation	-8923
▁Archiwum	-8924
▁szereg	-8925
▁podatk	-8926
▁podstawowych	-8927
▁rosną	-8928
▁reklama	-8929
▁Shi	-8930
▁rekru	-8931
▁rąk	-8932
▁Kategorie	-8933
▁wieczo	-8934
▁Wyświetleń	-8935
▁Tadeusz	-8936
▁zachód	-8937
▁zębów	-8938
centra	-8939
▁Formu	-8940
▁lotniczy	-8941
▁upad	-8942
▁wręcz	-8943
▁aut	-8944
ux	-8945
▁Cla	-8946
▁wysoką	-8947
▁stanowisku	-8948
▁uczniowie	-8949
rzał	-8950
▁szac	-8951
Ku	-8952
▁Archite	-8953
▁1983	-8954
ił	-8955
▁pokar	-8956
▁Wszyscy	-8957
▁faktu	-8958
▁kod	-8959
▁każde	-8960
▁2015,	-8961
tce	-8962
wraca	-8963
▁Inwe	-8964
▁nazwie	-8965
▁wreszcie	-8966
.01.	-8967
ür	-8968
lonego	-8969
gura	-8970
▁William	-8971
▁Poniżej	-8972
▁efekty	-8973
▁leży	-8974
kan	-8975
▁małżeń	-8976
▁spła	-8977
MT	-8978
▁Stowarzyszenie	-8979
▁użytkowania	-8980
▁Wyna	-8981
▁wyszukiwania	-8982
▁Życie	-8983
▁Sim	-8984
▁korzystania	-8985
▁cukier	-8986
dae	-8987
▁turniej	-8988
▁brakuje	-8989
▁zasila	-8990
▁przygotować	-8991
nicza	-8992
▁kryzy	-8993
▁przeglądar	-8994
▁wyglą	-8995
–18	-8996
▁zar	-8997
▁decyzję	-8998
zujemy	-8999
▁punktu	-9000
▁naru	-9001
Ze	-9002
bara	-9003
▁drogę	-9004
▁izo	-9005
cymi	-9006
▁Twór	-9007
▁Londynie	-9008
▁bile	-9009
▁reklam	-9010
▁Pozostałe	-9011
vio	-9012
skry	-9013
▁mieszkańcy	-9014
▁Galaxy	-9015
bienie	-9016
▁Power	-9017
▁mio	-9018
▁rozryw	-9019
▁jednost	-9020
▁59	-9021
▁Polskich	-9022
▁infrastru	-9023
▁płatności	-9024
owskie	-9025
▁rzeczywistości	-9026
▁Kilka	-9027
▁Napisano	-9028
zowana	-9029
▁Oko	-9030
▁Pen	-9031
▁ama	-9032
▁Trój	-9033
▁śmierć	-9034
cili	-9035
▁telewizyj	-9036
▁Techni	-9037
▁zapewnić	-9038
▁Sztuki	-9039
▁Sma	-9040
pb	-9041
▁AD	-9042
ństwa	-9043
▁władz	-9044
▁Izra	-9045
By	-9046
▁światło	-9047
CZY	-9048
▁posze	-9049
▁uj	-9050
▁zakupów	-9051
▁popro	-9052
▁Reprezentanci	-9053
▁Część	-9054
ins	-9055
▁2-	-9056
▁przyrody	-9057
wając	-9058
▁Ośrod	-9059
▁wątpliwości	-9060
▁posie	-9061
ństwo	-9062
▁kalenda	-9063
▁rzekł	-9064
śniu	-9065
-25	-9066
ged	-9067
▁Dr	-9068
rowie	-9069
▁znie	-9070
▁dziennie	-9071
▁mon	-9072
▁smaku	-9073
▁Dobrze	-9074
▁zez	-9075
▁mapie	-9076
sków	-9077
▁tworzenia	-9078
.2019	-9079
▁oleju	-9080
▁szwe	-9081
wiru	-9082
▁Jeden	-9083
niono	-9084
▁rzeki	-9085
▁kolorów	-9086
▁wielki	-9087
(".	-9088
▁Multi	-9089
▁dniem	-9090
▁organizmu	-9091
▁architek	-9092
▁mary	-9093
ila	-9094
czyta	-9095
RON	-9096
▁Właści	-9097
▁łóż	-9098
▁uwielbia	-9099
▁car	-9100
czyki	-9101
▁hipo	-9102
▁szkla	-9103
chodzie	-9104
▁Ukrainy	-9105
▁130	-9106
logicznej	-9107
▁1970	-9108
▁wykorzystania	-9109
▁liczbę	-9110
▁ISB	-9111
linar	-9112
gda	-9113
▁Love	-9114
cham	-9115
▁swe	-9116
▁tań	-9117
▁założy	-9118
▁ewa	-9119
▁Kę	-9120
▁najszyb	-9121
▁wykształ	-9122
▁wrocła	-9123
TW	-9124
święt	-9125
▁podwyż	-9126
▁prezentuje	-9127
rzęt	-9128
▁Dwa	-9129
niowy	-9130
▁móc	-9131
▁Powiat	-9132
▁Ogłoszenia	-9133
serwu	-9134
▁Jaki	-9135
▁Afryki	-9136
▁polsko	-9137
▁idealny	-9138
▁pełno	-9139
▁budowa	-9140
rzyja	-9141
zowanie	-9142
▁tło	-9143
▁Zakład	-9144
▁ściany	-9145
▁Sun	-9146
szewski	-9147
▁indywidualnych	-9148
▁1960	-9149
▁Sol	-9150
dziło	-9151
.1	-9152
▁jeź	-9153
.03.	-9154
▁kru	-9155
▁Der	-9156
▁zostali	-9157
▁nawią	-9158
▁Jezio	-9159
▁Rich	-9160
▁Listo	-9161
dnienie	-9162
▁Magdalena	-9163
▁ciężko	-9164
▁Hor	-9165
▁szkoła	-9166
tness	-9167
Fran	-9168
kienki	-9169
owiska	-9170
▁Typ	-9171
▁Rafał	-9172
▁wyco	-9173
▁15,	-9174
▁trasy	-9175
▁sesji	-9176
▁stolicy	-9177
▁chciała	-9178
▁×	-9179
▁dłużej	-9180
czanie	-9181
▁szansę	-9182
▁pięknie	-9183
wiać	-9184
▁sześć	-9185
▁dwor	-9186
html	-9187
-9	-9188
▁nowoczesne	-9189
▁Poda	-9190
▁Chło	-9191
▁umów	-9192
▁wygodne	-9193
▁bank	-9194
▁cele	-9195
▁Meble	-9196
szędzie	-9197
▁Krze	-9198
▁Roman	-9199
partamenty	-9200
ttle	-9201
▁władzy	-9202
ciera	-9203
▁KB	-9204
▁własny	-9205
dziemy	-9206
▁unik	-9207
.02.	-9208
▁religi	-9209
▁Elżbie	-9210
▁14,	-9211
▁Aust	-9212
▁przygotowania	-9213
odpor	-9214
stępuje	-9215
▁udziałem	-9216
dion	-9217
strzyma	-9218
ckiem	-9219
▁marek	-9220
▁organizacja	-9221
▁znanych	-9222
▁grę	-9223
▁darmowe	-9224
▁prosimy	-9225
▁kory	-9226
▁Stowarzyszenia	-9227
▁kreatyw	-9228
zia	-9229
MC	-9230
▁wrześniu	-9231
test	-9232
▁AGD	-9233
▁Rodzaj	-9234
▁prywatne	-9235
▁GT	-9236
▁iPhone	-9237
▁jednoraz	-9238
▁,,	-9239
rzyła	-9240
▁OB	-9241
▁książkę	-9242
ora	-9243
▁wybrany	-9244
▁1976	-9245
▁zawi	-9246
▁osobom	-9247
▁korzyst	-9248
XX	-9249
▁zła	-9250
logie	-9251
▁tram	-9252
▁Chcia	-9253
kor	-9254
▁Piotra	-9255
▁Niech	-9256
▁piękna	-9257
▁roman	-9258
jnego	-9259
▁ISBN	-9260
▁rano	-9261
▁czerw	-9262
rd	-9263
▁masy	-9264
▁odwiedza	-9265
owani	-9266
▁rządu	-9267
▁przebiega	-9268
▁maszyny	-9269
▁PG	-9270
▁Paryżu	-9271
▁Men	-9272
nili	-9273
▁1973	-9274
▁gospoda	-9275
niła	-9276
▁pokazuje	-9277
▁(199	-9278
▁Ligi	-9279
▁TVP	-9280
EF	-9281
▁paznok	-9282
genera	-9283
rent	-9284
ścił	-9285
▁aspek	-9286
-24	-9287
▁miesiąca	-9288
▁psa	-9289
▁widz	-9290
-23	-9291
▁ocena	-9292
▁nieprzy	-9293
sus	-9294
▁ból	-9295
▁kół	-9296
▁oczu	-9297
▁Kara	-9298
▁koja	-9299
▁artykułu	-9300
▁listę	-9301
▁Uwagi	-9302
▁9788	-9303
▁dróg	-9304
▁finansowe	-9305
▁ben	-9306
jczycy	-9307
▁zga	-9308
▁Eng	-9309
▁XVI	-9310
▁wojska	-9311
▁wyposażony	-9312
▁kończy	-9313
▁63	-9314
▁wielka	-9315
▁chory	-9316
▁wynajęcia	-9317
logiczna	-9318
▁Wes	-9319
▁akademi	-9320
▁lotnicze	-9321
▁2012,	-9322
wnej	-9323
▁narzędzi	-9324
▁łańcu	-9325
▁University	-9326
▁krótko	-9327
▁zarazem	-9328
▁Kobiety	-9329
▁Liga	-9330
▁planu	-9331
▁Jedy	-9332
nkowe	-9333
ulki	-9334
órek	-9335
▁odbyły	-9336
▁wydany	-9337
▁51	-9338
▁myśl	-9339
▁Króle	-9340
Advisor	-9341
▁Kwa	-9342
▁negatyw	-9343
▁Najlepiej	-9344
▁Dnia	-9345
▁Aka	-9346
wizji	-9347
Naj	-9348
▁Sur	-9349
glu	-9350
▁Zapo	-9351
▁witami	-9352
▁przygotowy	-9353
▁KO	-9354
▁ryb	-9355
▁dodatkowych	-9356
\"	-9357
▁awar	-9358
▁stal	-9359
iękujemy	-9360
krea	-9361
▁Ludwi	-9362
pać	-9363
▁kapła	-9364
▁ulubi	-9365
▁występował	-9366
▁stosować	-9367
▁oparciu	-9368
▁wiary	-9369
▁Gdynia	-9370
▁biało	-9371
▁okoliczności	-9372
▁właściciel	-9373
Of	-9374
▁Komple	-9375
łownik	-9376
zajem	-9377
cjonar	-9378
polska	-9379
cyny	-9380
▁motocyk	-9381
PP	-9382
▁Państwu	-9383
peu	-9384
▁oficer	-9385
▁Europejskiego	-9386
▁Online	-9387
▁stworzyć	-9388
▁Marta	-9389
▁Out	-9390
▁Kwi	-9391
kowanych	-9392
▁chłopa	-9393
▁Stanów	-9394
▁pełną	-9395
pin	-9396
▁ślubne	-9397
▁Nu	-9398
JĘ	-9399
▁Legi	-9400
▁Zale	-9401
▁wymiany	-9402
▁relacji	-9403
▁załą	-9404
niego	-9405
▁kości	-9406
▁zamek	-9407
SA	-9408
▁Edi	-9409
▁srebrny	-9410
▁Jednym	-9411
▁Des	-9412
▁malar	-9413
wnych	-9414
▁Sen	-9415
jowe	-9416
▁mięśni	-9417
▁Województwa	-9418
IB	-9419
▁kredytu	-9420
▁Green	-9421
ENIE	-9422
▁suple	-9423
▁stacja	-9424
▁900	-9425
EA	-9426
dziły	-9427
▁sprzą	-9428
▁docho	-9429
SZY	-9430
▁rozwiązaniem	-9431
▁pozwalają	-9432
▁dorad	-9433
▁Komitetu	-9434
▁bak	-9435
▁porównaniu	-9436
9,90	-9437
▁głównych	-9438
▁stały	-9439
▁Odpowiedz	-9440
ugh	-9441
nowski	-9442
▁download	-9443
▁fabu	-9444
▁form	-9445
▁źródła	-9446
eme	-9447
/1	-9448
▁sposoby	-9449
GO	-9450
▁wykonać	-9451
▁skoro	-9452
▁House	-9453
▁akumula	-9454
▁Sia	-9455
▁Kos	-9456
▁rezerwa	-9457
dząc	-9458
sięwzię	-9459
▁Szczegóły	-9460
szać	-9461
mentar	-9462
▁zmo	-9463
fen	-9464
▁trafił	-9465
▁instytucji	-9466
▁czasopis	-9467
▁Oka	-9468
dru	-9469
▁stóp	-9470
zempla	-9471
styki	-9472
wnie	-9473
▁Kal	-9474
oth	-9475
▁redu	-9476
else	-9477
MD	-9478
▁Bran	-9479
▁video	-9480
ACZ	-9481
żny	-9482
▁planowa	-9483
▁Twoja	-9484
▁sprawi	-9485
▁Wydziale	-9486
▁krok	-9487
▁kwestii	-9488
▁XVIII	-9489
struj	-9490
▁przeja	-9491
▁prokura	-9492
lasy	-9493
▁Wój	-9494
▁opieki	-9495
▁man	-9496
▁ćwiczenia	-9497
▁parku	-9498
▁nacze	-9499
▁rośliny	-9500
łową	-9501
▁Sony	-9502
▁najważniejszych	-9503
▁13,	-9504
the	-9505
▁Miejskiej	-9506
▁tymi	-9507
▁Frank	-9508
burgu	-9509
▁←	-9510
▁najwięcej	-9511
▁Bisku	-9512
▁modeli	-9513
▁Zawsze	-9514
▁szpitala	-9515
▁adwoka	-9516
vice	-9517
Ser	-9518
▁lą	-9519
gosła	-9520
▁programów	-9521
▁TVN	-9522
Com	-9523
▁zastanawia	-9524
▁kasy	-9525
▁ujaw	-9526
owskich	-9527
GF	-9528
-22	-9529
nikach	-9530
▁salon	-9531
YL	-9532
szczony	-9533
▁Politechni	-9534
▁apte	-9535
▁szkoleni	-9536
▁Wprowa	-9537
rol	-9538
▁nego	-9539
▁Fre	-9540
▁KON	-9541
▁ręki	-9542
▁czarne	-9543
▁Lublinie	-9544
▁Transport	-9545
growa	-9546
right	-9547
▁pragnie	-9548
ŁY	-9549
▁Mana	-9550
▁profil	-9551
mus	-9552
dery	-9553
▁International	-9554
▁Twi	-9555
▁ostatecznie	-9556
▁Geo	-9557
żonym	-9558
▁Konferen	-9559
▁składniki	-9560
data	-9561
300	-9562
▁Raci	-9563
▁przeznaczony	-9564
▁XL	-9565
▁pracownika	-9566
▁łazienki	-9567
▁wspomina	-9568
FOR	-9569
▁znajdziemy	-9570
can	-9571
▁wiadomość	-9572
▁Ya	-9573
▁stałe	-9574
▁ułatwia	-9575
.”	-9576
▁rad	-9577
▁Zarządza	-9578
kładki	-9579
▁powiąza	-9580
▁out	-9581
dawca	-9582
▁Bułgar	-9583
cezja	-9584
▁luksu	-9585
▁Macie	-9586
tyle	-9587
▁ulubionych	-9588
dziem	-9589
▁zgin	-9590
tage	-9591
/2	-9592
▁!!!	-9593
▁wielką	-9594
▁125	-9595
▁szan	-9596
▁pytań	-9597
▁cmentarzu	-9598
▁Zbigniew	-9599
▁Obywa	-9600
▁drużyna	-9601
▁Kup	-9602
▁Ryb	-9603
▁gatunku	-9604
▁oddział	-9605
▁Przej	-9606
▁zalog	-9607
▁Colle	-9608
▁itd	-9609
▁ocho	-9610
nor	-9611
▁wiemy	-9612
▁samych	-9613
▁sprawą	-9614
▁Portuga	-9615
iss	-9616
▁akcja	-9617
czeka	-9618
▁kome	-9619
▁mówić	-9620
Mu	-9621
ric	-9622
▁Stru	-9623
▁TripAdvisor	-9624
▁obowiązu	-9625
▁wystą	-9626
▁ratu	-9627
▁zachowania	-9628
▁położone	-9629
▁wyposażone	-9630
▁Free	-9631
▁Pet	-9632
▁pł	-9633
▁leża	-9634
▁Policji	-9635
▁szeroko	-9636
▁najpopular	-9637
zując	-9638
▁Pomor	-9639
soli	-9640
water	-9641
▁wszystkiego	-9642
▁aresz	-9643
▁wychodzi	-9644
▁swej	-9645
▁Bożej	-9646
▁bezprzewo	-9647
▁pomieszczenia	-9648
▁Vir	-9649
▁Yor	-9650
▁aktywności	-9651
trzymu	-9652
▁White	-9653
mur	-9654
▁okolicach	-9655
▁Fundacja	-9656
▁wszelkich	-9657
▁limi	-9658
▁pój	-9659
▁Wojska	-9660
▁Mari	-9661
▁konsul	-9662
▁powinniśmy	-9663
raża	-9664
.05.	-9665
▁środę	-9666
▁1979	-9667
ACJA	-9668
▁białe	-9669
▁Alex	-9670
▁przeznaczone	-9671
▁ekspres	-9672
▁prysznic	-9673
▁teksty	-9674
▁Wielki	-9675
▁szybkie	-9676
jawsko	-9677
.2	-9678
▁Festiwal	-9679
▁odcinek	-9680
sługa	-9681
▁egzempla	-9682
▁Król	-9683
▁wystarcza	-9684
fum	-9685
▁paliwa	-9686
łoży	-9687
▁wych	-9688
▁angielski	-9689
welo	-9690
▁Paździer	-9691
▁odzież	-9692
▁kompe	-9693
▁zbo	-9694
dW	-9695
▁Włoch	-9696
▁uzupeł	-9697
▁koła	-9698
▁dostawy	-9699
▁przypadkach	-9700
▁pamią	-9701
▁świ	-9702
▁dowiedzieć	-9703
lic	-9704
▁klas	-9705
▁nagród	-9706
pio	-9707
▁studentów	-9708
▁Porów	-9709
▁Myś	-9710
▁podzię	-9711
rdze	-9712
▁występują	-9713
▁Mac	-9714
▁powtó	-9715
▁]	-9716
rzan	-9717
▁Oficjalna	-9718
▁Wtedy	-9719
▁Jose	-9720
inę	-9721
▁gum	-9722
▁Możliwość	-9723
▁danego	-9724
▁UK	-9725
lana	-9726
▁meczów	-9727
▁Kultura	-9728
▁prosta	-9729
▁polity	-9730
nień	-9731
▁kopa	-9732
▁Wersja	-9733
▁Znajduje	-9734
▁PM	-9735
śników	-9736
▁prag	-9737
-00	-9738
▁arcy	-9739
tko	-9740
▁wizu	-9741
▁wniosku	-9742
▁montażu	-9743
róbu	-9744
▁socja	-9745
▁policji	-9746
▁uroczystości	-9747
rzów	-9748
▁nawilża	-9749
deracji	-9750
▁wynaj	-9751
▁Hal	-9752
BC	-9753
▁(15	-9754
▁1978	-9755
▁Tho	-9756
ANE	-9757
ero	-9758
▁mur	-9759
▁sieć	-9760
▁Rzesz	-9761
▁wiodą	-9762
▁rezy	-9763
nemu	-9764
▁perku	-9765
▁Ety	-9766
▁Zegar	-9767
▁vs	-9768
▁zaludnienia	-9769
hire	-9770
▁Sprzedaż	-9771
▁mną	-9772
▁Marii	-9773
").	-9774
▁Karol	-9775
▁honor	-9776
▁gęstość	-9777
▁Któ	-9778
▁Parla	-9779
▁Moja	-9780
▁tale	-9781
mentami	-9782
lację	-9783
▁Koncer	-9784
HD	-9785
▁wyświetleń	-9786
▁Władysław	-9787
eo	-9788
▁Don	-9789
didas	-9790
▁wygrał	-9791
%.	-9792
▁zakres	-9793
▁terenu	-9794
▁zalicza	-9795
▁ura	-9796
▁ryzyko	-9797
▁Sejm	-9798
samo	-9799
▁pomiar	-9800
.06.	-9801
lany	-9802
szku	-9803
▁wschód	-9804
▁pomor	-9805
▁sal	-9806
HR	-9807
▁More	-9808
▁zaopa	-9809
▁rej	-9810
Si	-9811
▁Napisz	-9812
My	-9813
▁rehabili	-9814
godnienia	-9815
cesy	-9816
▁Zapy	-9817
▁oskar	-9818
▁Mora	-9819
ODZ	-9820
▁68	-9821
Kod	-9822
sig	-9823
szkę	-9824
▁Bole	-9825
▁zastąpi	-9826
▁stopień	-9827
▁Komunika	-9828
▁granicą	-9829
▁Zdrowia	-9830
nat	-9831
▁dziennik	-9832
lender	-9833
▁gnia	-9834
kat	-9835
▁skali	-9836
óki	-9837
▁okazało	-9838
▁najlepszym	-9839
▁umowę	-9840
▁leżą	-9841
▁Jagiel	-9842
tysfa	-9843
▁PW	-9844
sat	-9845
nictwie	-9846
▁kim	-9847
||	-9848
yal	-9849
iat	-9850
▁62	-9851
długo	-9852
▁tygodnie	-9853
CIE	-9854
dt	-9855
▁Tem	-9856
▁Kazimierz	-9857
▁Bob	-9858
▁zaleca	-9859
onet	-9860
słucha	-9861
▁ekspo	-9862
▁pozycję	-9863
mand	-9864
.2014	-9865
very	-9866
▁zespoły	-9867
lno	-9868
▁1918	-9869
▁1)	-9870
ARZ	-9871
ręb	-9872
▁adap	-9873
▁moją	-9874
▁aplika	-9875
▁finansowych	-9876
▁któremu	-9877
kul	-9878
▁Il	-9879
▁zwa	-9880
▁prywatności	-9881
▁istotne	-9882
blą	-9883
opomor	-9884
▁przodu	-9885
▁TO	-9886
CJA	-9887
%,	-9888
▁zasadzie	-9889
nęły	-9890
▁Najświęt	-9891
tha	-9892
▁pozycjonowanie	-9893
iny	-9894
▁zarzu	-9895
ic	-9896
▁Większość	-9897
bout	-9898
▁Finans	-9899
▁zagospodar	-9900
wam	-9901
▁Cmenta	-9902
▁KOM	-9903
▁siedem	-9904
▁trwania	-9905
▁piekar	-9906
▁Wieś	-9907
neta	-9908
nięte	-9909
▁produkcja	-9910
IX	-9911
▁jutro	-9912
▁Każda	-9913
ey	-9914
lać	-9915
▁Pho	-9916
▁źle	-9917
▁wolności	-9918
▁Scho	-9919
zyn	-9920
▁osiem	-9921
▁interpre	-9922
gowi	-9923
żni	-9924
▁skąd	-9925
kowice	-9926
▁nogi	-9927
▁moment	-9928
▁RSS	-9929
▁przygotow	-9930
/2019	-9931
Dzie	-9932
▁przejść	-9933
▁kle	-9934
▁przestrzeń	-9935
sla	-9936
▁miałem	-9937
▁4-	-9938
cla	-9939
▁Smart	-9940
▁służy	-9941
stola	-9942
▁nagrodę	-9943
▁Un	-9944
▁zdobyła	-9945
budowy	-9946
ind	-9947
▁pode	-9948
▁biała	-9949
dzonego	-9950
▁porady	-9951
▁piękny	-9952
▁Den	-9953
▁nagle	-9954
▁dodatek	-9955
zel	-9956
szak	-9957
▁głowę	-9958
.000	-9959
▁pilo	-9960
▁Śląska	-9961
ik	-9962
▁harmo	-9963
▁Zaj	-9964
▁uzupełnia	-9965
▁72	-9966
▁biskup	-9967
▁połowy	-9968
▁salonu	-9969
▁Del	-9970
uli	-9971
zan	-9972
stawienie	-9973
▁dobro	-9974
knie	-9975
▁rodzice	-9976
komen	-9977
▁przedsięwzię	-9978
OŚĆ	-9979
▁utwór	-9980
▁tekstu	-9981
bytków	-9982
▁maju	-9983
▁reżyserii	-9984
▁Cro	-9985
▁niczym	-9986
▁Stefa	-9987
▁wydru	-9988
hiteli	-9989
▁pracownicy	-9990
board	-9991
▁stopy	-9992
ął	-9993
▁cytry	-9994
źli	-9995
ire	-9996
▁nieod	-9997
nur	-9998
▁VII	-9999
kw	-10000
▁jednostek	-10001
▁1941	-10002
SC	-10003
▁pozostałych	-10004
dzwo	-10005
▁new	-10006
▁walce	-10007
▁etapie	-10008
▁odebra	-10009
Wie	-10010
twory	-10011
▁Dobry	-10012
▁złota	-10013
▁rozmia	-10014
hitelist	-10015
▁uprze	-10016
▁Zaloguj	-10017
▁Fra	-10018
▁oczyszcza	-10019
▁bó	-10020
▁Włoszech	-10021
▁Bydgoszczy	-10022
korzyst	-10023
ACJ	-10024
▁zamon	-10025
▁Andrzeja	-10026
▁chcieli	-10027
czoną	-10028
▁podrę	-10029
▁napisy	-10030
▁widzę	-10031
▁gospodarki	-10032
▁wina	-10033
▁kwalifika	-10034
▁Inn	-10035
▁średnio	-10036
▁sylwet	-10037
▁doktora	-10038
▁usy	-10039
▁rekord	-10040
wione	-10041
luzy	-10042
▁technik	-10043
▁Kursy	-10044
▁cebu	-10045
▁Trybu	-10046
▁1940	-10047
▁elementem	-10048
▁kapli	-10049
▁wielkim	-10050
▁(9	-10051
hn	-10052
▁Kło	-10053
▁doktor	-10054
▁Północnej	-10055
▁rękę	-10056
▁warstw	-10057
alna	-10058
▁Gość	-10059
."	-10060
ższe	-10061
▁Les	-10062
▁podzi	-10063
▁bom	-10064
▁Monika	-10065
▁woli	-10066
▁pobytu	-10067
▁dobrych	-10068
▁drewniane	-10069
▁potrzebuje	-10070
/12	-10071
+"	-10072
pus	-10073
ping	-10074
▁Piosen	-10075
▁Pokój	-10076
ruje	-10077
ródeł	-10078
▁Patry	-10079
▁Music	-10080
▁77	-10081
jpg	-10082
lk	-10083
wizja	-10084
wiony	-10085
▁Europa	-10086
funk	-10087
▁Mariusz	-10088
▁psychi	-10089
▁termo	-10090
▁Indy	-10091
▁Audi	-10092
▁opakowa	-10093
mbol	-10094
▁eks	-10095
▁1968	-10096
▁Recen	-10097
▁zorganizowa	-10098
▁Single	-10099
▁żołnierzy	-10100
▁Wola	-10101
▁ON	-10102
▁dwudzie	-10103
▁utru	-10104
▁wskaź	-10105
▁Yo	-10106
ury	-10107
▁firmą	-10108
▁zasob	-10109
▁Rzeszów	-10110
▁zapewne	-10111
baj	-10112
▁Bon	-10113
▁odcie	-10114
▁dokumenty	-10115
rej	-10116
▁próbu	-10117
▁zdarzenia	-10118
▁płyn	-10119
▁zdarza	-10120
bit	-10121
▁mała	-10122
.04.	-10123
▁lę	-10124
wyczaj	-10125
▁Af	-10126
Fo	-10127
▁wszech	-10128
▁Opie	-10129
▁Arka	-10130
▁Beach	-10131
ACK	-10132
▁wydanie	-10133
▁kontrakt	-10134
lera	-10135
▁170	-10136
▁Masz	-10137
▁OR	-10138
▁stronach	-10139
▁prawne	-10140
rzbie	-10141
▁rewolu	-10142
▁styczniu	-10143
▁owoców	-10144
▁dziesią	-10145
▁ćwiczeń	-10146
▁red	-10147
▁19,	-10148
▁podstawowe	-10149
▁budżetu	-10150
sztor	-10151
▁pobrania	-10152
▁bel	-10153
▁zapoznania	-10154
powtarz	-10155
▁Przyja	-10156
czen	-10157
▁16,	-10158
▁przygotowanie	-10159
▁Mów	-10160
▁koloru	-10161
nęło	-10162
▁run	-10163
▁pracować	-10164
▁tłuszcz	-10165
▁ziemnia	-10166
▁nauczycieli	-10167
▁1974	-10168
▁SL	-10169
▁najniż	-10170
▁łączą	-10171
.2013	-10172
▁Japonii	-10173
▁Potem	-10174
Ijo	-10175
▁progno	-10176
pospolita	-10177
▁nawie	-10178
orii	-10179
ciska	-10180
▁Szyb	-10181
iner	-10182
▁info	-10183
▁wskazuje	-10184
▁angielskiego	-10185
▁Rad	-10186
▁profesor	-10187
▁oglądać	-10188
▁Gal	-10189
▁fot	-10190
▁Góry	-10191
▁United	-10192
▁zamierza	-10193
▁wykaza	-10194
stom	-10195
▁celów	-10196
ded	-10197
▁2011,	-10198
kto	-10199
onki	-10200
▁nur	-10201
▁okolice	-10202
WO	-10203
nei	-10204
▁Pok	-10205
.07.	-10206
▁polityki	-10207
▁klient	-10208
▁zwal	-10209
▁Grupy	-10210
▁Ly	-10211
▁Vin	-10212
zowanych	-10213
▁konieczne	-10214
▁złdo	-10215
▁telewizji	-10216
▁hur	-10217
▁juniorów	-10218
▁(6)	-10219
▁dostać	-10220
▁Rada	-10221
▁uzyskania	-10222
dzią	-10223
nocy	-10224
▁realizację	-10225
▁myśla	-10226
▁dostępu	-10227
▁przegląda	-10228
▁Arty	-10229
▁większej	-10230
▁Sąd	-10231
0000	-10232
▁Parku	-10233
▁LG	-10234
▁Przypo	-10235
bił	-10236
▁widzenia	-10237
▁Ram	-10238
▁oprogramowania	-10239
robo	-10240
▁sklepy	-10241
▁ciekawych	-10242
▁trasie	-10243
▁David	-10244
▁systemy	-10245
▁Agencja	-10246
▁rozli	-10247
▁Oj	-10248
tkowy	-10249
▁Osią	-10250
▁opłaca	-10251
▁trakt	-10252
▁dźwięk	-10253
logicznego	-10254
▁gdzieś	-10255
terie	-10256
▁eBay	-10257
▁radio	-10258
zasa	-10259
ón	-10260
▁Odkry	-10261
▁Sob	-10262
▁zacząć	-10263
range	-10264
▁lato	-10265
Wo	-10266
▁Dziękuję	-10267
▁MAR	-10268
▁służb	-10269
▁związek	-10270
▁2023	-10271
▁możecie	-10272
▁graczy	-10273
ciach	-10274
▁America	-10275
▁gieł	-10276
▁skarb	-10277
pane	-10278
▁Otwar	-10279
bol	-10280
▁Samochody	-10281
trzą	-10282
▁India	-10283
▁władze	-10284
▁publicznego	-10285
▁czerwcu	-10286
▁kwadra	-10287
genty	-10288
hel	-10289
szonych	-10290
BL	-10291
▁sex	-10292
▁pakie	-10293
tele	-10294
▁zag	-10295
▁płu	-10296
wood	-10297
▁Down	-10298
▁nota	-10299
▁kategoria	-10300
WIE	-10301
▁rozpoczęła	-10302
▁synte	-10303
▁recenzję	-10304
▁Gimna	-10305
▁Aktualizacja	-10306
▁free	-10307
▁sierp	-10308
tv	-10309
▁warszawa	-10310
▁miarę	-10311
▁przybli	-10312
▁osiągnię	-10313
▁1977	-10314
▁Syste	-10315
ielgrzy	-10316
▁Rumunii	-10317
iolet	-10318
owce	-10319
▁oddzie	-10320
▁Kot	-10321
▁autorstwa	-10322
▁Żo	-10323
▁Marzec	-10324
▁żywności	-10325
done	-10326
=0	-10327
▁Zapa	-10328
▁powietrze	-10329
▁finał	-10330
ure	-10331
▁proto	-10332
Sy	-10333
▁Dri	-10334
FC	-10335
▁76	-10336
▁Nas	-10337
▁(17	-10338
▁wysił	-10339
▁rodzaje	-10340
▁pojemności	-10341
▁cudow	-10342
▁69	-10343
▁towarów	-10344
▁1500	-10345
▁asyst	-10346
▁metra	-10347
▁radzie	-10348
▁ciężar	-10349
raktery	-10350
▁łazienka	-10351
▁Video	-10352
▁zwycięz	-10353
▁Karolina	-10354
▁unie	-10355
▁drzewa	-10356
▁rozdziel	-10357
▁Austria	-10358
▁Włochy	-10359
▁67	-10360
▁upły	-10361
▁sposobem	-10362
▁zbi	-10363
▁matka	-10364
▁Właśnie	-10365
▁zawodnik	-10366
▁AP	-10367
▁dodania	-10368
tonu	-10369
▁dwoma	-10370
ślij	-10371
▁Ró	-10372
▁żydow	-10373
▁źródeł	-10374
TS	-10375
▁FOR	-10376
▁rachunk	-10377
▁Team	-10378
▁finału	-10379
nkowy	-10380
woli	-10381
styna	-10382
▁Polo	-10383
▁krótki	-10384
WWW	-10385
▁zba	-10386
▁mani	-10387
FA	-10388
▁pw	-10389
gio	-10390
mić	-10391
.2012	-10392
▁Oprac	-10393
▁3000	-10394
▁hab	-10395
▁swoimi	-10396
4,99	-10397
skop	-10398
pelu	-10399
▁now	-10400
▁Cle	-10401
▁smak	-10402
dent	-10403
▁premier	-10404
-2020	-10405
▁książce	-10406
▁motyw	-10407
ktyczne	-10408
▁ofertą	-10409
vb	-10410
▁ton	-10411
Or	-10412
▁Polskę	-10413
▁wykonywania	-10414
▁damska	-10415
/3	-10416
▁Październik	-10417
▁końców	-10418
▁szeroki	-10419
▁Coun	-10420
▁banku	-10421
binet	-10422
▁szaf	-10423
▁pliku	-10424
▁Es	-10425
▁świeży	-10426
▁Tim	-10427
▁elektryczne	-10428
▁Daniel	-10429
▁mąż	-10430
▁Michael	-10431
▁LO	-10432
umia	-10433
▁Van	-10434
listów	-10435
▁zagranicznych	-10436
▁okazuje	-10437
loty	-10438
▁Więc	-10439
byś	-10440
▁płyt	-10441
tant	-10442
-28	-10443
▁współpracę	-10444
ned	-10445
▁SH	-10446
▁wpad	-10447
▁xxx	-10448
▁Microsoft	-10449
▁Wska	-10450
▁Rejon	-10451
▁rzeczywiście	-10452
▁17,	-10453
▁większych	-10454
▁wyżej	-10455
▁szukać	-10456
▁Tan	-10457
▁specjalnych	-10458
▁74	-10459
▁Wyposa	-10460
▁statu	-10461
▁moderni	-10462
▁sekund	-10463
▁dziewię	-10464
▁--	-10465
▁koniecznie	-10466
towali	-10467
▁systemem	-10468
niowych	-10469
▁przyspie	-10470
Sto	-10471
▁EAN	-10472
▁zastrze	-10473
lont	-10474
wela	-10475
▁Woda	-10476
szeniem	-10477
▁szerokości	-10478
chami	-10479
03	-10480
▁Seba	-10481
▁szary	-10482
▁Ogro	-10483
▁99	-10484
▁Nowej	-10485
▁hamul	-10486
▁your	-10487
wica	-10488
▁Street	-10489
▁owoce	-10490
▁gwarantuje	-10491
▁Domu	-10492
zosta	-10493
TU	-10494
▁kontaktowe	-10495
▁morza	-10496
▁igrzysk	-10497
▁uko	-10498
▁fote	-10499
▁Sprzedam	-10500
▁Zachodni	-10501
▁grun	-10502
dzam	-10503
phy	-10504
▁zrozumie	-10505
.30	-10506
▁Styczeń	-10507
▁zrezy	-10508
▁Allegro	-10509
▁biznesu	-10510
gwia	-10511
▁SM	-10512
▁Szczegól	-10513
▁odbyło	-10514
▁61	-10515
▁prz	-10516
style	-10517
nden	-10518
ront	-10519
▁magazyn	-10520
▁edukacji	-10521
sul	-10522
▁Gmin	-10523
▁moze	-10524
cht	-10525
▁zajęła	-10526
We	-10527
▁powierzchnię	-10528
▁skórza	-10529
▁samodzielnie	-10530
▁CR	-10531
skowe	-10532
cyjno	-10533
▁zespole	-10534
▁organizm	-10535
lnością	-10536
▁stacjonar	-10537
▁cieszyć	-10538
▁korzyści	-10539
▁spokojnie	-10540
▁przekształ	-10541
▁Celem	-10542
cor	-10543
▁natury	-10544
▁Internetu	-10545
dri	-10546
▁83	-10547
▁widzia	-10548
mistrza	-10549
▁musie	-10550
▁wizyty	-10551
▁potrzeba	-10552
▁High	-10553
▁more	-10554
/5	-10555
▁przekracza	-10556
▁Wielo	-10557
szpania	-10558
▁zmianie	-10559
▁krew	-10560
▁hali	-10561
onej	-10562
▁funkcjonu	-10563
▁wysokim	-10564
▁this	-10565
▁łatwe	-10566
▁fanów	-10567
pr	-10568
▁zarządu	-10569
▁moty	-10570
▁specyfi	-10571
▁Ministra	-10572
▁domowe	-10573
▁najstar	-10574
▁kulinar	-10575
▁obywatel	-10576
▁reklamy	-10577
▁kościele	-10578
ódni	-10579
▁najwy	-10580
▁panu	-10581
▁zespołem	-10582
alnie	-10583
▁czarna	-10584
▁licencji	-10585
▁sportowych	-10586
▁sens	-10587
tain	-10588
▁wolne	-10589
▁budowie	-10590
liści	-10591
▁choćby	-10592
▁Tutaj	-10593
▁Records	-10594
▁jakiegoś	-10595
▁gen	-10596
pami	-10597
▁Jednocześnie	-10598
▁medalista	-10599
cks	-10600
▁zbliża	-10601
▁88	-10602
siness	-10603
▁lega	-10604
▁1950	-10605
kurat	-10606
▁Alba	-10607
matycznych	-10608
.08.	-10609
▁kogoś	-10610
▁Krem	-10611
▁lekkoatle	-10612
żyna	-10613
▁bierze	-10614
dziesiąt	-10615
▁zawody	-10616
UCH	-10617
CB	-10618
szula	-10619
▁pewien	-10620
▁cztero	-10621
▁Groma	-10622
zumienia	-10623
▁dzieciom	-10624
skimi	-10625
zj	-10626
▁Lubi	-10627
dora	-10628
łty	-10629
▁zwycięstwo	-10630
▁Facebook	-10631
▁klo	-10632
▁unij	-10633
chęca	-10634
▁pojawił	-10635
▁tysiące	-10636
▁żyje	-10637
-27	-10638
mera	-10639
gowym	-10640
pdf	-10641
▁rekrea	-10642
▁Powo	-10643
▁zmniejsza	-10644
▁Wiktor	-10645
▁Kwiecień	-10646
▁Ponieważ	-10647
▁utwory	-10648
demu	-10649
▁Wyko	-10650
▁Adria	-10651
▁zer	-10652
▁wyjaśnia	-10653
▁Zyg	-10654
▁wzo	-10655
▁Obywatel	-10656
▁marcu	-10657
▁posa	-10658
▁czytelników	-10659
▁Luty	-10660
▁duchow	-10661
▁Dwu	-10662
▁20,	-10663
gip	-10664
▁wymagania	-10665
▁dzieła	-10666
▁Miejsca	-10667
▁3,5	-10668
▁opiera	-10669
▁Jorku	-10670
▁szu	-10671
▁zysku	-10672
▁Węgier	-10673
▁remont	-10674
-26	-10675
▁zb	-10676
tec	-10677
▁wycieczki	-10678
szków	-10679
vil	-10680
▁chorób	-10681
▁zespołów	-10682
▁cechy	-10683
▁bezpośre	-10684
ważnie	-10685
pecja	-10686
▁wyk	-10687
▁przeniesi	-10688
strukcja	-10689
▁Life	-10690
▁Magi	-10691
tantów	-10692
perium	-10693
▁recenzja	-10694
beli	-10695
▁odcinku	-10696
▁dyscypli	-10697
▁gwiazdy	-10698
▁<	-10699
▁pojawiają	-10700
▁Sco	-10701
▁urząd	-10702
wel	-10703
zacje	-10704
▁wybierz	-10705
turą	-10706
łożyć	-10707
▁laser	-10708
▁Dni	-10709
▁związany	-10710
▁hal	-10711
▁Zdoby	-10712
▁Serdecznie	-10713
▁zasadni	-10714
▁absolwen	-10715
▁karierze	-10716
▁Narodów	-10717
▁analiz	-10718
▁Listopad	-10719
▁Piłka	-10720
▁zamyka	-10721
▁higie	-10722
grup	-10723
▁mian	-10724
▁mart	-10725
▁360	-10726
▁wpła	-10727
▁Republiki	-10728
▁Berlin	-10729
▁daleko	-10730
▁naturalny	-10731
termin	-10732
cts	-10733
▁ogłoszenie	-10734
▁Warszawskiego	-10735
▁wnętrze	-10736
▁wspólnego	-10737
▁absolu	-10738
▁trudne	-10739
▁mistrzostwo	-10740
▁North	-10741
▁wynikiem	-10742
▁Kosme	-10743
▁podium	-10744
▁350	-10745
▁Adama	-10746
▁dziewczyny	-10747
▁orien	-10748
▁wypa	-10749
▁operacji	-10750
▁dania	-10751
▁Waga	-10752
▁Tere	-10753
▁sprawdź	-10754
▁północno	-10755
▁Mikołaj	-10756
ARD	-10757
matyczny	-10758
▁barwach	-10759
▁wan	-10760
▁ponadto	-10761
▁kost	-10762
dzik	-10763
unków	-10764
sik	-10765
▁18,	-10766
cono	-10767
▁akty	-10768
wicy	-10769
▁Clas	-10770
▁Wydział	-10771
▁faktycznie	-10772
▁Złoty	-10773
▁formu	-10774
▁posła	-10775
▁żadnej	-10776
▁Iza	-10777
mińsko	-10778
▁obrębie	-10779
▁Uniwersytet	-10780
ess	-10781
zza	-10782
▁Brow	-10783
▁1943	-10784
▁narze	-10785
śnik	-10786
▁dawno	-10787
▁Lokalizacja	-10788
▁stąd	-10789
Be	-10790
▁wyprzeda	-10791
emon	-10792
▁osobę	-10793
dero	-10794
nanie	-10795
▁Poja	-10796
▁beton	-10797
▁przyłą	-10798
▁Rynek	-10799
▁Santa	-10800
zywać	-10801
▁płyta	-10802
fit	-10803
▁szerokość	-10804
▁wyp	-10805
▁Drugi	-10806
▁wysoki	-10807
',	-10808
▁koronawiru	-10809
PA	-10810
▁Get	-10811
./	-10812
▁wzdłuż	-10813
▁Ile	-10814
▁Pomocy	-10815
OWIE	-10816
PC	-10817
ish	-10818
róbować	-10819
▁bywa	-10820
▁charakterze	-10821
▁placu	-10822
▁Australii	-10823
pul	-10824
▁matki	-10825
arium	-10826
▁danej	-10827
niejszą	-10828
arek	-10829
▁(16	-10830
miera	-10831
▁PDF	-10832
▁butel	-10833
▁epo	-10834
▁Francja	-10835
▁przyczyny	-10836
▁78	-10837
▁wystaw	-10838
▁kierowca	-10839
▁lipcu	-10840
▁wdro	-10841
▁kadry	-10842
▁główny	-10843
▁ogranicza	-10844
▁chu	-10845
▁Mikołaja	-10846
▁podo	-10847
trio	-10848
▁pozyska	-10849
cyklopedia	-10850
onka	-10851
ICZ	-10852
▁Hur	-10853
▁skompli	-10854
▁głowie	-10855
▁wycofa	-10856
▁niewiele	-10857
▁przycze	-10858
▁hod	-10859
▁pop	-10860
▁ówczes	-10861
lory	-10862
▁Dow	-10863
▁History	-10864
niesienie	-10865
▁wyma	-10866
▁sprę	-10867
▁szybki	-10868
▁dziewczyna	-10869
▁linia	-10870
▁oddziały	-10871
▁umiesz	-10872
▁rzadko	-10873
żono	-10874
▁Muzyka	-10875
▁Madry	-10876
▁wnio	-10877
▁mogło	-10878
****	-10879
▁okrą	-10880
▁dochodzi	-10881
▁europejskich	-10882
/2017	-10883
▁grudniu	-10884
▁Tę	-10885
▁UR	-10886
▁Informacja	-10887
на	-10888
▁uchwały	-10889
bok	-10890
▁wyraźnie	-10891
regu	-10892
▁Dowie	-10893
dników	-10894
zdro	-10895
heim	-10896
▁przeszłości	-10897
▁Wolne	-10898
▁robią	-10899
▁Tech	-10900
bera	-10901
▁TH	-10902
lend	-10903
▁hum	-10904
koma	-10905
▁rock	-10906
▁zje	-10907
INE	-10908
szel	-10909
▁kierowców	-10910
▁Inwesty	-10911
pha	-10912
▁Bożego	-10913
▁czoł	-10914
▁Cheł	-10915
▁Wysokość	-10916
▁Papie	-10917
▁zio	-10918
gr	-10919
▁Białystok	-10920
▁Cre	-10921
▁czarno	-10922
▁górę	-10923
▁Ukrainie	-10924
▁zapewni	-10925
▁dodatki	-10926
5,00	-10927
▁zmaga	-10928
zn	-10929
Przy	-10930
inki	-10931
▁May	-10932
▁niemieckiego	-10933
▁temperatura	-10934
▁oczekiwa	-10935
nując	-10936
▁godzinę	-10937
▁znana	-10938
▁Biało	-10939
▁pewnym	-10940
▁otrzymać	-10941
▁kilometrów	-10942
▁mapa	-10943
▁Leg	-10944
▁deszcz	-10945
▁powiedziała	-10946
▁pielęgnacji	-10947
▁wzboga	-10948
▁OS	-10949
▁Grudzień	-10950
▁ubo	-10951
lane	-10952
▁Sukienka	-10953
▁transpor	-10954
▁prowadzone	-10955
▁barw	-10956
▁sała	-10957
▁powoli	-10958
▁miesiącu	-10959
▁Holandii	-10960
▁Tymczasem	-10961
▁zmę	-10962
▁ciepło	-10963
jami	-10964
Jl	-10965
indexOf	-10966
▁zapewniają	-10967
Zd	-10968
▁kwestia	-10969
▁Gold	-10970
teczne	-10971
▁wolny	-10972
▁Czerwiec	-10973
▁alternatyw	-10974
▁królew	-10975
▁wrz	-10976
▁Pun	-10977
▁analizy	-10978
▁Chcesz	-10979
dowany	-10980
▁cenach	-10981
wskie	-10982
▁starszych	-10983
▁obejmu	-10984
▁dyrektora	-10985
▁zanieczy	-10986
celar	-10987
Stro	-10988
▁udostępnia	-10989
▁przebywa	-10990
▁nierdze	-10991
łożenie	-10992
▁laurea	-10993
▁muzeum	-10994
lat	-10995
▁Nieruchomości	-10996
▁Wał	-10997
AŻ	-10998
/2018	-10999
▁Chro	-11000
▁klasie	-11001
▁prawnych	-11002
Wyświet	-11003
▁zobaczy	-11004
▁RE	-11005
▁żyć	-11006
▁etap	-11007
▁programy	-11008
pur	-11009
▁1928	-11010
▁if	-11011
▁otrzymała	-11012
▁refle	-11013
▁ciekawy	-11014
▁konfi	-11015
field	-11016
▁obowiązków	-11017
tyfikowa	-11018
▁pełna	-11019
▁obejrzeć	-11020
▁stowarzy	-11021
▁cukru	-11022
▁planuje	-11023
▁wiatr	-11024
zujący	-11025
▁wyklu	-11026
▁słowo	-11027
▁Termin	-11028
▁przeszko	-11029
torze	-11030
▁wypadek	-11031
bisku	-11032
▁plik	-11033
▁elasty	-11034
▁Konstan	-11035
▁poinformowa	-11036
▁przedszkola	-11037
▁ulo	-11038
▁skaza	-11039
▁słońca	-11040
ŁO	-11041
matyki	-11042
▁półfina	-11043
▁referen	-11044
conych	-11045
▁ręcznie	-11046
▁dziew	-11047
list	-11048
▁Czym	-11049
▁Taj	-11050
▁Zjednoczone	-11051
▁francuski	-11052
▁odpoczy	-11053
▁proś	-11054
▁tom	-11055
▁§	-11056
▁małej	-11057
▁Jezusa	-11058
fumy	-11059
wita	-11060
▁społecznej	-11061
▁Lou	-11062
▁wodzie	-11063
▁Toruń	-11064
▁zabudowy	-11065
▁Szwecji	-11066
▁Apli	-11067
sil	-11068
▁szybciej	-11069
▁Mur	-11070
ECH	-11071
▁koron	-11072
ANA	-11073
▁koni	-11074
▁Efek	-11075
▁farma	-11076
▁mówiąc	-11077
▁atmosfery	-11078
mani	-11079
▁CL	-11080
▁Roku	-11081
▁Zde	-11082
nan	-11083
unek	-11084
▁zakupi	-11085
fin	-11086
▁rośnie	-11087
▁miastach	-11088
▁kłopo	-11089
▁Franciszek	-11090
▁Ny	-11091
kiedy	-11092
▁podwo	-11093
▁domowych	-11094
▁Gwaran	-11095
▁narodowej	-11096
▁książę	-11097
▁Pomi	-11098
▁serial	-11099
▁1964	-11100
▁krawę	-11101
▁party	-11102
strzę	-11103
▁niepowtarz	-11104
ANY	-11105
▁1969	-11106
loną	-11107
▁wiosen	-11108
TO	-11109
▁objawy	-11110
▁Paul	-11111
▁1971	-11112
▁Artur	-11113
▁Wene	-11114
▁Psycho	-11115
▁Rzą	-11116
▁Ludowej	-11117
▁1919	-11118
logię	-11119
▁pożar	-11120
▁Zapraszam	-11121
▁najs	-11122
▁Tel	-11123
bre	-11124
lizmu	-11125
▁Dariusz	-11126
▁przepisa	-11127
▁tan	-11128
▁objął	-11129
▁wierzy	-11130
▁planetoid	-11131
▁finale	-11132
▁sprowa	-11133
▁metro	-11134
▁wymienia	-11135
▁Księgarnia	-11136
▁towaru	-11137
▁tyłu	-11138
▁Intel	-11139
▁zgła	-11140
▁niedawno	-11141
▁bezpłatne	-11142
sci	-11143
▁czuje	-11144
▁pomieszczeń	-11145
Oi	-11146
jer	-11147
▁Popular	-11148
▁wirtual	-11149
▁praktyce	-11150
▁Austrii	-11151
nora	-11152
▁psów	-11153
▁asorty	-11154
▁Wykład	-11155
▁imi	-11156
unkowo	-11157
▁Średni	-11158
▁prędkości	-11159
ltai	-11160
▁menu	-11161
▁buk	-11162
▁Inspek	-11163
▁98	-11164
▁Wej	-11165
▁Drew	-11166
▁bloga	-11167
▁wszędzie	-11168
nnego	-11169
▁odtwarza	-11170
▁lokalnych	-11171
▁zagrożenia	-11172
▁ZUS	-11173
cowy	-11174
▁samochodem	-11175
bierze	-11176
▁Dobra	-11177
▁alar	-11178
▁rowe	-11179
▁zawodnikiem	-11180
lux	-11181
▁prowadzić	-11182
▁Rus	-11183
ving	-11184
▁Gran	-11185
▁Android	-11186
▁Wito	-11187
▁piłki	-11188
▁początkowo	-11189
▁negocja	-11190
żowy	-11191
▁opcji	-11192
▁powiat	-11193
szyła	-11194
▁2010,	-11195
▁przeczyta	-11196
▁basen	-11197
▁wieczorem	-11198
gły	-11199
▁EN	-11200
▁wskazów	-11201
▁występujący	-11202
▁niezależnie	-11203
▁miaste	-11204
▁trafia	-11205
▁kolum	-11206
▁nieruch	-11207
mes	-11208
▁znajdziecie	-11209
▁przedmiotów	-11210
biny	-11211
▁Kamil	-11212
▁spotkać	-11213
trol	-11214
arch	-11215
▁zbu	-11216
▁straż	-11217
▁sympa	-11218
▁pogody	-11219
pany	-11220
▁labora	-11221
▁1956	-11222
▁Wielkiego	-11223
▁odpowiedniej	-11224
▁Wrzesień	-11225
▁gatunki	-11226
▁ziar	-11227
07	-11228
▁dolnoślą	-11229
▁badaw	-11230
▁treść	-11231
▁Rea	-11232
▁handlu	-11233
▁zapraszam	-11234
▁Up	-11235
▁sprzyja	-11236
▁najnowsze	-11237
▁konsekwen	-11238
▁zarabia	-11239
obile	-11240
▁pracownik	-11241
▁Prezydent	-11242
▁popularne	-11243
▁Podobnie	-11244
Pu	-11245
▁rozegrał	-11246
tłuma	-11247
strali	-11248
▁podaje	-11249
▁obiad	-11250
Kur	-11251
kosz	-11252
▁przepły	-11253
▁niespodzia	-11254
tat	-11255
▁propozycje	-11256
▁study	-11257
▁wydoby	-11258
▁zabieg	-11259
▁Domy	-11260
▁Kobieta	-11261
▁główne	-11262
żnie	-11263
▁audio	-11264
▁sied	-11265
lenty	-11266
▁Interes	-11267
▁przyszłość	-11268
▁wino	-11269
▁Prezes	-11270
▁Warszta	-11271
▁alumini	-11272
=!	-11273
▁sukienka	-11274
▁ministra	-11275
wacja	-11276
▁Festiwalu	-11277
▁wniosków	-11278
▁even	-11279
iz	-11280
▁obserw	-11281
▁lewej	-11282
▁startu	-11283
▁Sho	-11284
.09.	-11285
hp	-11286
sier	-11287
▁:-)	-11288
▁znajdą	-11289
-29	-11290
▁zdobyć	-11291
▁otwarcia	-11292
Cena	-11293
▁taniej	-11294
▁dosy	-11295
▁znaczenia	-11296
▁Twoich	-11297
pą	-11298
▁Biu	-11299
▁jednorodzin	-11300
▁Prix	-11301
kwa	-11302
ons	-11303
sarz	-11304
▁pisać	-11305
▁pewność	-11306
▁osobowe	-11307
▁kamer	-11308
Sport	-11309
▁plaży	-11310
▁Henryk	-11311
lena	-11312
▁Gene	-11313
▁sypialni	-11314
▁maka	-11315
▁Ć	-11316
sły	-11317
▁Fas	-11318
▁James	-11319
▁większa	-11320
nomii	-11321
ken	-11322
04	-11323
PU	-11324
▁Ogłoszenie	-11325
▁pleca	-11326
niowa	-11327
▁Miejscowość	-11328
iona	-11329
▁DJ	-11330
▁waha	-11331
strój	-11332
▁Design	-11333
▁największe	-11334
An	-11335
▁kolejna	-11336
▁Ori	-11337
▁odsłon	-11338
lara	-11339
ienia	-11340
▁84	-11341
ÓŁ	-11342
▁1946	-11343
▁damy	-11344
▁Best	-11345
▁Budowa	-11346
▁Zaby	-11347
▁wydłu	-11348
▁dwukrotnie	-11349
▁najmłodszych	-11350
▁13.	-11351
▁odpowiedniego	-11352
komo	-11353
▁Lipiec	-11354
▁substancji	-11355
▁przetr	-11356
logy	-11357
▁kierowni	-11358
▁terytoria	-11359
▁Mili	-11360
▁poru	-11361
▁Stanowi	-11362
dały	-11363
▁ac	-11364
500	-11365
gwiazd	-11366
budowany	-11367
▁przedstawiciele	-11368
▁MO	-11369
▁gola	-11370
▁Filip	-11371
▁Barbara	-11372
▁pomimo	-11373
▁73	-11374
▁nadzwyczaj	-11375
▁Gatunki	-11376
▁id	-11377
▁rzędu	-11378
▁design	-11379
IH	-11380
▁przedsiębiorstw	-11381
▁National	-11382
▁zmarł	-11383
CC	-11384
▁Metal	-11385
▁ulega	-11386
▁Atlan	-11387
▁kwotę	-11388
▁ważna	-11389
▁zniesi	-11390
▁Programu	-11391
ATA	-11392
▁uwie	-11393
▁pobu	-11394
▁fotografii	-11395
▁presti	-11396
▁bon	-11397
padzie	-11398
▁boi	-11399
▁transfer	-11400
▁Odpowiedź	-11401
▁turystyczne	-11402
▁Św	-11403
▁męża	-11404
▁vie	-11405
▁Skrzy	-11406
▁sposobów	-11407
▁miejskiej	-11408
phi	-11409
▁Wraz	-11410
glo	-11411
YCZ	-11412
▁1948	-11413
▁koncentra	-11414
▁kali	-11415
▁klasa	-11416
▁Gali	-11417
▁Sę	-11418
▁gwał	-11419
▁Wró	-11420
▁fer	-11421
leć	-11422
tonie	-11423
▁powstanie	-11424
stanie	-11425
▁Szczecinie	-11426
▁Island	-11427
▁wspina	-11428
▁Rzeczpospolita	-11429
]:	-11430
▁tworzenie	-11431
▁konieczności	-11432
▁dewelo	-11433
▁męska	-11434
▁Później	-11435
peta	-11436
▁Kredy	-11437
▁używać	-11438
▁Odrodzenia	-11439
stoku	-11440
▁procesie	-11441
▁Center	-11442
▁kolejnym	-11443
▁tara	-11444
ordy	-11445
▁wysu	-11446
INA	-11447
▁Charaktery	-11448
ра	-11449
▁Jagiello	-11450
ownia	-11451
▁myślę	-11452
▁mistrza	-11453
▁otacza	-11454
▁prawosław	-11455
▁anima	-11456
▁czerwony	-11457
▁Cup	-11458
▁Kliknij	-11459
▁polo	-11460
▁Peter	-11461
▁Początkowo	-11462
▁Wydarzenia	-11463
▁zarezer	-11464
▁Honor	-11465
▁Julia	-11466
▁wieczór	-11467
▁skra	-11468
▁Panie	-11469
▁skonta	-11470
▁Note	-11471
ply	-11472
wii	-11473
czaka	-11474
▁minimum	-11475
▁Fot	-11476
▁skan	-11477
▁Market	-11478
cheo	-11479
▁Ken	-11480
▁piłkarzy	-11481
▁ewi	-11482
▁dachu	-11483
▁kandydatów	-11484
▁badanie	-11485
▁październiku	-11486
▁poprowa	-11487
▁zwierzęta	-11488
▁uszkodzenia	-11489
▁Zygmu	-11490
▁czymś	-11491
warka	-11492
Vy	-11493
chel	-11494
tona	-11495
▁Gnie	-11496
▁szó	-11497
▁linie	-11498
ktem	-11499
▁specjalistów	-11500
łaś	-11501
▁cieszą	-11502
▁wyścigu	-11503
▁Mel	-11504
▁kilkanaście	-11505
▁ubezpieczenia	-11506
▁katalogowy	-11507
▁przedstawicieli	-11508
mki	-11509
▁Pokoje	-11510
BR	-11511
Cza	-11512
▁audy	-11513
▁Kielce	-11514
tkowej	-11515
▁satysfa	-11516
▁base	-11517
zjaty	-11518
▁Indeks	-11519
▁tryb	-11520
▁dodano	-11521
▁lubią	-11522
▁kolejną	-11523
▁paznokci	-11524
▁dziecięce	-11525
cket	-11526
nicki	-11527
minarium	-11528
▁scenie	-11529
▁stosowane	-11530
▁Politycy	-11531
stronomiczne	-11532
▁staran	-11533
▁wiąza	-11534
Mj	-11535
▁wystawy	-11536
▁medale	-11537
▁Champion	-11538
▁Bieg	-11539
kładem	-11540
▁ogromne	-11541
▁It	-11542
▁odde	-11543
mieniem	-11544
-2017	-11545
▁Twoim	-11546
▁Politechniki	-11547
▁(3),	-11548
▁Zarząd	-11549
▁Sar	-11550
▁Ekonomi	-11551
▁wer	-11552
▁Teatr	-11553
//	-11554
▁regularnie	-11555
▁osiągnąć	-11556
▁Komentarze	-11557
▁wystawi	-11558
▁Nowego	-11559
▁dum	-11560
▁League	-11561
▁opisy	-11562
▁poinformował	-11563
▁Wer	-11564
▁Maszy	-11565
▁Wielu	-11566
▁Next	-11567
▁meczach	-11568
▁Zielona	-11569
▁prowadził	-11570
▁wymiary	-11571
▁odchu	-11572
▁gazu	-11573
06	-11574
▁ataku	-11575
▁autobus	-11576
▁Taka	-11577
gg	-11578
DS	-11579
▁wagi	-11580
iści	-11581
▁ważny	-11582
budow	-11583
▁kwiatów	-11584
▁ocie	-11585
▁spółka	-11586
▁86	-11587
▁rat	-11588
▁Dołą	-11589
▁Znale	-11590
▁powieść	-11591
▁klimat	-11592
▁gadże	-11593
▁połączeniu	-11594
▁informacja	-11595
▁zachodniej	-11596
▁Najważ	-11597
▁blogu	-11598
▁powietrzu	-11599
url	-11600
▁Michała	-11601
▁propozycja	-11602
▁Odpowiedzi	-11603
▁Taki	-11604
▁zakończenie	-11605
▁osobą	-11606
▁Czech	-11607
stans	-11608
▁jedzenie	-11609
▁Przede	-11610
▁chirur	-11611
▁potwierdza	-11612
▁Mała	-11613
▁Kim	-11614
towoltai	-11615
żanie	-11616
▁Standard	-11617
▁bezpieczne	-11618
łymi	-11619
riusze	-11620
link	-11621
▁Merce	-11622
▁formę	-11623
sche	-11624
▁promieni	-11625
▁podgatu	-11626
▁wykorzystaniem	-11627
▁Szkole	-11628
▁Ministerstwo	-11629
▁krymina	-11630
▁gnie	-11631
▁odcin	-11632
mentach	-11633
nety	-11634
▁Wir	-11635
▁wysoka	-11636
łuje	-11637
▁Real	-11638
▁..	-11639
▁magazynie	-11640
▁Day	-11641
niowej	-11642
stein	-11643
▁Fundacji	-11644
wory	-11645
▁pocie	-11646
▁Ministerstwa	-11647
▁pasuje	-11648
▁naturalnych	-11649
chal	-11650
▁Of	-11651
▁Zgroma	-11652
▁Dyrektor	-11653
▁Swi	-11654
liński	-11655
▁96	-11656
jnym	-11657
▁Premium	-11658
różnia	-11659
▁żaden	-11660
▁budowlanych	-11661
▁sateli	-11662
▁Zastos	-11663
▁uczestnicy	-11664
▁Rio	-11665
▁piętrze	-11666
▁RAM	-11667
▁wypada	-11668
▁podatki	-11669
▁Royal	-11670
▁Było	-11671
ordyna	-11672
rok	-11673
▁takimi	-11674
▁Budynek	-11675
▁kat	-11676
▁przedsiębiorców	-11677
▁nazwisko	-11678
▁Martin	-11679
▁klienci	-11680
ziom	-11681
▁albumu	-11682
▁Roma	-11683
▁statysty	-11684
▁Tow	-11685
▁dają	-11686
▁Olsztyn	-11687
▁dziękuję	-11688
▁samą	-11689
▁niskiej	-11690
▁porządku	-11691
▁Święta	-11692
reak	-11693
▁lut	-11694
▁Sec	-11695
▁Sara	-11696
▁Stefan	-11697
udo	-11698
dowie	-11699
▁220	-11700
▁ekspery	-11701
▁środa	-11702
▁stosuje	-11703
Ex	-11704
omi	-11705
▁mniejsze	-11706
▁zastosowania	-11707
▁trudności	-11708
▁indywidualne	-11709
▁największą	-11710
▁Stos	-11711
▁Ubezpie	-11712
▁dokumentu	-11713
▁24,	-11714
▁strzel	-11715
▁Niektóre	-11716
▁(7)	-11717
▁Vie	-11718
skawi	-11719
ICA	-11720
czan	-11721
▁ocenić	-11722
▁Kanady	-11723
nięty	-11724
▁festiwalu	-11725
▁odpowiednich	-11726
▁kwietniu	-11727
▁0,5	-11728
▁1938	-11729
▁zato	-11730
Ak	-11731
leniem	-11732
▁Jerzego	-11733
▁Sierpień	-11734
▁Prace	-11735
▁1952	-11736
▁imieniu	-11737
▁Profesjona	-11738
▁Naz	-11739
▁pozby	-11740
▁poniż	-11741
▁listopadzie	-11742
ск	-11743
éj	-11744
▁kompo	-11745
lewski	-11746
▁Dziewczy	-11747
▁Pon	-11748
▁Części	-11749
▁Istnieje	-11750
▁określi	-11751
▁okrąg	-11752
▁ubrania	-11753
▁Redakcja	-11754
pliwie	-11755
▁Wyświetl	-11756
▁Ala	-11757
▁numerem	-11758
▁tymczas	-11759
▁sportu	-11760
▁dokonać	-11761
▁wziął	-11762
▁Faceboo	-11763
▁Marian	-11764
▁wykonaniu	-11765
ancelar	-11766
09	-11767
▁Angeles	-11768
▁potrafią	-11769
▁wypełnia	-11770
▁Odzież	-11771
mik	-11772
▁OK	-11773
▁grana	-11774
stami	-11775
▁plany	-11776
▁metodą	-11777
▁społecznych	-11778
JĘCIA	-11779
▁Wynajem	-11780
miarów	-11781
▁minuty	-11782
▁grający	-11783
▁mp	-11784
▁błąd	-11785
▁niezawo	-11786
▁Miał	-11787
▁pacjenta	-11788
▁Stron	-11789
▁osobiście	-11790
▁przeci	-11791
▁Noclegi	-11792
▁Firmy	-11793
▁informację	-11794
dG	-11795
▁George	-11796
-2018	-11797
.2010	-11798
▁Internecie	-11799
▁Oferty	-11800
▁przebieg	-11801
▁1966	-11802
▁podejście	-11803
");	-11804
▁15.	-11805
▁XVII	-11806
▁Antoni	-11807
▁grzbie	-11808
▁top	-11809
NO	-11810
▁grać	-11811
▁pliki	-11812
▁szczęścia	-11813
▁Najbardziej	-11814
▁kompeten	-11815
▁zaczęła	-11816
dowane	-11817
▁sierpniu	-11818
08	-11819
sey	-11820
▁82	-11821
▁nowoczesnych	-11822
▁otrzymywać	-11823
powsze	-11824
▁Sena	-11825
▁krótkim	-11826
▁nauka	-11827
▁akcep	-11828
▁PAN	-11829
gua	-11830
czkach	-11831
▁Gdyby	-11832
rowy	-11833
▁Bun	-11834
▁dokony	-11835
▁ciekawo	-11836
cn	-11837
▁wybranych	-11838
▁literatury	-11839
wóz	-11840
▁global	-11841
▁230	-11842
bow	-11843
zyska	-11844
▁Ukoń	-11845
mna	-11846
▁uję	-11847
▁Ozna	-11848
▁zamawia	-11849
Wyświetl	-11850
▁Eduka	-11851
▁zdjęciu	-11852
▁Telefon	-11853
▁Sezon	-11854
łóż	-11855
▁1967	-11856
▁RTV	-11857
▁She	-11858
▁kąpieli	-11859
▁Kowal	-11860
All	-11861
tową	-11862
▁Zaku	-11863
▁Zmarł	-11864
tyn	-11865
▁hydro	-11866
WD	-11867
▁Wice	-11868
________	-11869
▁14.	-11870
▁wyposażenia	-11871
nomia	-11872
▁funkcjonowania	-11873
▁Miro	-11874
▁pełen	-11875
▁dodaj	-11876
▁Gdyni	-11877
▁polską	-11878
zury	-11879
▁Chyba	-11880
▁złą	-11881
UC	-11882
▁średniowie	-11883
▁DLA	-11884
▁87	-11885
▁usytu	-11886
bory	-11887
▁Tags	-11888
BI	-11889
oney	-11890
▁NR	-11891
fort	-11892
▁wyborów	-11893
cyjnymi	-11894
▁znik	-11895
▁wersję	-11896
▁Również	-11897
▁popar	-11898
▁turystów	-11899
mix	-11900
▁piw	-11901
▁Małe	-11902
▁1942	-11903
nonim	-11904
▁uniwersyte	-11905
▁powrócił	-11906
▁Obiekt	-11907
▁zachowanie	-11908
żach	-11909
dował	-11910
▁omów	-11911
▁reprezentant	-11912
/11	-11913
▁witaminy	-11914
jewództwo	-11915
▁obsługę	-11916
▁Kompu	-11917
▁Sejmu	-11918
▁aktualnie	-11919
ważam	-11920
▁Pucha	-11921
▁Metro	-11922
▁21,	-11923
▁Edukacji	-11924
▁niby	-11925
▁numeru	-11926
▁Sukcesy	-11927
▁konstrukcja	-11928
kieru	-11929
▁odczy	-11930
gine	-11931
▁UW	-11932
▁słod	-11933
▁staroży	-11934
▁toż	-11935
▁administracji	-11936
▁ety	-11937
▁północnej	-11938
▁pot	-11939
▁(13	-11940
▁Pocz	-11941
.2011	-11942
▁Read	-11943
▁Jezus	-11944
▁kwoty	-11945
▁aplikacja	-11946
▁Fal	-11947
▁zabawa	-11948
Gu	-11949
▁ostatniego	-11950
różnic	-11951
▁transakcji	-11952
▁otwarte	-11953
żnych	-11954
▁jedyny	-11955
▁ładnie	-11956
▁propozycji	-11957
vious	-11958
▁Występ	-11959
▁mowa	-11960
tsu	-11961
▁obrazy	-11962
▁wysyłkę	-11963
rost	-11964
▁działają	-11965
▁wyższe	-11966
▁Kuchnia	-11967
▁południowej	-11968
▁lis	-11969
▁galerii	-11970
wskich	-11971
▁symboli	-11972
▁VIII	-11973
działam	-11974
▁odpowiednią	-11975
VI	-11976
▁Siedzi	-11977
▁zabytków	-11978
▁Królew	-11979
śnicy	-11980
▁figur	-11981
▁pamięć	-11982
▁korzystanie	-11983
▁przewa	-11984
▁ślubu	-11985
▁kultur	-11986
▁podpisał	-11987
ice	-11988
▁baza	-11989
▁Apartament	-11990
▁spodoba	-11991
▁węgla	-11992
▁zgody	-11993
▁oficjalnie	-11994
ray	-11995
▁Wan	-11996
▁Ren	-11997
▁południe	-11998
▁Etykiety	-11999
▁probo	-12000
ONY	-12001
▁ogrzewanie	-12002
crip	-12003
▁Krajowej	-12004
lans	-12005
▁wyku	-12006
▁Ster	-12007
▁Aleksander	-12008
▁pływa	-12009
▁włoski	-12010
mym	-12011
▁przechodzi	-12012
gas	-12013
▁Najpierw	-12014
pal	-12015
▁Swe	-12016
▁niebieski	-12017
Ha	-12018
zjer	-12019
▁zaska	-12020
▁MS	-12021
▁słabo	-12022
▁Zawodni	-12023
▁zwi	-12024
▁22,	-12025
▁Pers	-12026
▁dotąd	-12027
▁lampy	-12028
▁Gości	-12029
▁rozpocznie	-12030
sor	-12031
stawienia	-12032
▁dzieckiem	-12033
▁Zdjęcie	-12034
Wię	-12035
▁zdoła	-12036
▁kancelar	-12037
chium	-12038
▁ochronę	-12039
▁Medal	-12040
▁Stara	-12041
▁MT	-12042
▁trybie	-12043
▁PAP	-12044
▁Oce	-12045
▁armii	-12046
▁czą	-12047
szard	-12048
▁gospodarczej	-12049
▁Kate	-12050
▁Przedszko	-12051
▁Wielkopolski	-12052
▁IX	-12053
▁Zachęca	-12054
▁Decy	-12055
▁zainstal	-12056
▁Orze	-12057
▁Czwar	-12058
▁Demokra	-12059
▁tytułem	-12060
▁aktorka	-12061
Win	-12062
▁Powszech	-12063
▁utrzymy	-12064
▁musieli	-12065
▁Big	-12066
▁Grani	-12067
▁katastro	-12068
Dodaj	-12069
▁portre	-12070
▁jeziora	-12071
▁gara	-12072
▁Villa	-12073
zyka	-12074
▁Pogoda	-12075
▁Zamów	-12076
▁powrót	-12077
▁dowolnym	-12078
▁Czeka	-12079
▁opisu	-12080
▁bab	-12081
▁dą	-12082
▁2020,	-12083
▁Biała	-12084
▁akurat	-12085
▁wyraź	-12086
▁kolejowe	-12087
▁5-	-12088
▁SE	-12089
czące	-12090
▁Sprawie	-12091
▁sięg	-12092
▁(198	-12093
▁pul	-12094
▁komisji	-12095
▁jaj	-12096
▁mama	-12097
▁żar	-12098
▁dystan	-12099
▁uleg	-12100
▁norwe	-12101
▁pomarańcz	-12102
▁oryginalny	-12103
▁Maja	-12104
▁Poży	-12105
▁grunt	-12106
▁EX	-12107
ENA	-12108
ings	-12109
rzyści	-12110
▁park	-12111
▁aktorzy	-12112
▁prawej	-12113
▁szklan	-12114
▁znak	-12115
▁Myślę	-12116
▁pewnego	-12117
▁wyglądać	-12118
▁Jean	-12119
▁1962	-12120
▁znalazła	-12121
▁mis	-12122
▁Masa	-12123
wąt	-12124
▁Została	-12125
▁gość	-12126
rop	-12127
▁Biblioteka	-12128
▁79	-12129
ujące	-12130
▁Zapro	-12131
▁wpływem	-12132
▁can	-12133
liście	-12134
▁dał	-12135
▁detali	-12136
▁najlepszą	-12137
ship	-12138
▁czele	-12139
lle	-12140
▁ogrodzie	-12141
chowie	-12142
▁czasy	-12143
▁Mają	-12144
▁tematu	-12145
▁licznych	-12146
▁Lite	-12147
▁Beata	-12148
▁szpi	-12149
▁nowoczesny	-12150
równa	-12151
▁spodnie	-12152
Tra	-12153
▁krajobraz	-12154
▁szcz	-12155
▁bieżąco	-12156
▁mieszkaniu	-12157
▁Wielkie	-12158
▁przywró	-12159
▁zmianę	-12160
chą	-12161
hatera	-12162
▁wrócił	-12163
sten	-12164
▁komer	-12165
▁naukowych	-12166
wic	-12167
Ju	-12168
▁tren	-12169
▁wybrze	-12170
▁Powiatu	-12171
▁wycią	-12172
integrowa	-12173
▁lepszy	-12174
sson	-12175
stop	-12176
▁Rejestracja	-12177
▁płó	-12178
▁decyzja	-12179
▁roboty	-12180
▁Leży	-12181
▁zesz	-12182
▁największym	-12183
▁spekta	-12184
▁lutym	-12185
▁sytuację	-12186
▁filmowe	-12187
▁wyglądają	-12188
UE	-12189
▁plasuje	-12190
▁cien	-12191
▁adresem	-12192
▁fał	-12193
▁wykorzystuje	-12194
▁lokalu	-12195
dzasz	-12196
▁batali	-12197
▁techniki	-12198
▁Statystyki	-12199
▁zadbać	-12200
▁radości	-12201
▁Śre	-12202
stitu	-12203
zujące	-12204
▁Klasyfikacja	-12205
isko	-12206
▁Posłowie	-12207
▁978	-12208
▁musiała	-12209
tet	-12210
▁odbiera	-12211
▁nawiąza	-12212
▁Mały	-12213
sters	-12214
▁wieczor	-12215
▁Uwaga	-12216
▁Dal	-12217
niczej	-12218
tli	-12219
▁większy	-12220
▁Wel	-12221
▁1961	-12222
▁Pojem	-12223
ENIA	-12224
cjone	-12225
▁herbu	-12226
▁bukmach	-12227
▁trenera	-12228
nionym	-12229
świadczenie	-12230
▁zaofer	-12231
▁świetny	-12232
▁etui	-12233
▁dotk	-12234
▁lotniska	-12235
▁Ford	-12236
▁Znajdź	-12237
▁telewizyjne	-12238
▁odpa	-12239
▁Spodnie	-12240
▁delikatnie	-12241
▁Brytania	-12242
▁pensjona	-12243
▁Koszykarze	-12244
lock	-12245
Oj	-12246
▁gotowe	-12247
USZ	-12248
▁Napisane	-12249
▁koro	-12250
▁atu	-12251
▁oferujemy	-12252
IDEO	-12253
▁oddziału	-12254
▁jasno	-12255
XL	-12256
▁wzajem	-12257
nkę	-12258
GC	-12259
▁pełnym	-12260
▁71	-12261
▁przeką	-12262
dełko	-12263
▁wzbu	-12264
▁ryzyka	-12265
▁pojawiły	-12266
▁kosztuje	-12267
▁mecha	-12268
▁kła	-12269
▁Bart	-12270
▁Buk	-12271
▁(14	-12272
▁Zespołu	-12273
▁pobierz	-12274
▁przerwy	-12275
▁nazywa	-12276
mieście	-12277
nas	-12278
▁oczywi	-12279
▁rozmai	-12280
▁nieszczę	-12281
▁Book	-12282
kurza	-12283
▁Zamo	-12284
▁opłat	-12285
sma	-12286
dzonym	-12287
▁Wita	-12288
▁łatwy	-12289
▁wiru	-12290
▁wygrywa	-12291
SD	-12292
▁placówki	-12293
▁olimpijczycy	-12294
▁fotowoltai	-12295
▁Kolejne	-12296
▁plac	-12297
▁Fabry	-12298
▁bezpłatny	-12299
▁internetu	-12300
▁Premier	-12301
▁zresztą	-12302
▁bliżej	-12303
▁Ow	-12304
UiO	-12305
mowane	-12306
▁rzuca	-12307
wojen	-12308
▁urodzin	-12309
▁kolorach	-12310
▁niedziela	-12311
▁Sky	-12312
▁lekarzy	-12313
▁rodzajów	-12314
▁rozmów	-12315
▁skupia	-12316
▁dieta	-12317
godni	-12318
▁spada	-12319
▁rezerwacji	-12320
▁powyż	-12321
▁odległość	-12322
▁Elblą	-12323
▁szkolenie	-12324
czał	-12325
▁Berlinie	-12326
czku	-12327
▁pokazać	-12328
▁Były	-12329
HL	-12330
dacji	-12331
▁PKP	-12332
▁Nigdy	-12333
▁przebie	-12334
▁Moskwie	-12335
▁ochrona	-12336
miernie	-12337
owuje	-12338
▁ó	-12339
stycznej	-12340
grzeb	-12341
▁liści	-12342
niczych	-12343
dos	-12344
▁Ostro	-12345
▁Zdrowie	-12346
▁straża	-12347
▁założenia	-12348
tea	-12349
skar	-12350
▁Group	-12351
▁dosyć	-12352
▁zdolności	-12353
kiew	-12354
▁Spar	-12355
TI	-12356
▁obrób	-12357
▁cookies	-12358
▁największy	-12359
▁1965	-12360
▁weso	-12361
▁czekać	-12362
▁inna	-12363
▁BO	-12364
▁wdzię	-12365
▁otwarty	-12366
▁Mis	-12367
▁zarob	-12368
▁dziale	-12369
▁Ara	-12370
▁qu	-12371
wiad	-12372
byśmy	-12373
hion	-12374
▁rosyjski	-12375
▁zadaniem	-12376
▁smartfon	-12377
▁prywatnych	-12378
▁kontek	-12379
▁organizację	-12380
▁sanitar	-12381
▁Skle	-12382
▁profilu	-12383
▁ładu	-12384
▁osobisty	-12385
▁Maryi	-12386
▁XXI	-12387
łom	-12388
▁(2),	-12389
▁seg	-12390
▁Ważne	-12391
▁ję	-12392
órka	-12393
▁rozgrywkach	-12394
▁stale	-12395
dycha	-12396
ronika	-12397
▁sąsia	-12398
anu	-12399
▁PP	-12400
szny	-12401
malną	-12402
▁najszybciej	-12403
▁Tłuma	-12404
▁Wcześniej	-12405
▁powtarza	-12406
▁Master	-12407
▁rozwią	-12408
▁Hali	-12409
ware	-12410
▁drużynie	-12411
▁urzędu	-12412
▁Lech	-12413
▁zimowe	-12414
▁Gla	-12415
dalem	-12416
▁zwolnie	-12417
arejestruj	-12418
▁redak	-12419
▁wydarzenie	-12420
tti	-12421
▁Lektury	-12422
▁resz	-12423
▁przychodzi	-12424
Dom	-12425
▁Słowe	-12426
▁publiczne	-12427
▁Zre	-12428
▁wiszą	-12429
szowe	-12430
▁przeczytać	-12431
ERT	-12432
▁przeprowadza	-12433
obój	-12434
▁mery	-12435
▁działać	-12436
▁przyjął	-12437
▁środowisko	-12438
▁szkodli	-12439
▁nocleg	-12440
▁1958	-12441
▁prąd	-12442
szono	-12443
▁Pię	-12444
bG	-12445
/20	-12446
▁bramki	-12447
inka	-12448
▁Franciszka	-12449
żegna	-12450
▁czytania	-12451
▁treningu	-12452
▁1959	-12453
.3	-12454
▁jesienią	-12455
nery	-12456
▁kolejnej	-12457
▁chwy	-12458
▁projekcie	-12459
▁Frie	-12460
▁ciasta	-12461
ст	-12462
gal	-12463
bour	-12464
▁grozi	-12465
cznością	-12466
▁alkohol	-12467
YS	-12468
logicznym	-12469
nista	-12470
▁śmieci	-12471
▁Czes	-12472
▁nowości	-12473
▁najlepsza	-12474
ZE	-12475
▁osiągnięcia	-12476
▁manu	-12477
▁wykorzystywane	-12478
▁średnicy	-12479
▁nadrukiem	-12480
▁taras	-12481
▁zabawki	-12482
▁sposobu	-12483
▁regul	-12484
▁Plu	-12485
▁małym	-12486
▁ekstra	-12487
▁23,	-12488
sky	-12489
▁zapisy	-12490
▁Gr	-12491
.200	-12492
▁granicach	-12493
▁Pul	-12494
siła	-12495
▁uzysku	-12496
▁Kancelar	-12497
▁Kosza	-12498
▁Społecznej	-12499
▁1936	-12500
▁zała	-12501
▁Jab	-12502
▁likwi	-12503
▁gli	-12504
▁nożna	-12505
▁regenera	-12506
▁Igna	-12507
▁poły	-12508
▁1930	-12509
▁kanady	-12510
dztwa	-12511
▁pała	-12512
▁skórze	-12513
▁ilustra	-12514
▁technologia	-12515
▁ero	-12516
▁okazja	-12517
▁Que	-12518
zumienie	-12519
▁Fanta	-12520
▁otwarcie	-12521
▁Chrystusa	-12522
▁suger	-12523
▁Hotels	-12524
▁DR	-12525
.9	-12526
▁Fun	-12527
▁Najlepszy	-12528
▁namio	-12529
▁kościo	-12530
czew	-12531
▁artystów	-12532
▁Akcja	-12533
▁lamp	-12534
▁inspira	-12535
▁NAT	-12536
▁ciemno	-12537
▁Szwajcarii	-12538
▁zęby	-12539
lodzy	-12540
▁Wolnych	-12541
▁Spółka	-12542
glądaj	-12543
owanymi	-12544
▁bloku	-12545
▁klasztor	-12546
▁Białym	-12547
towanego	-12548
▁podstawy	-12549
▁....	-12550
▁FR	-12551
▁owoc	-12552
▁skrzyż	-12553
▁Związek	-12554
▁Monachium	-12555
▁przytu	-12556
▁Aktualnie	-12557
▁Light	-12558
▁napis	-12559
nionego	-12560
▁Uchwała	-12561
▁amb	-12562
owałam	-12563
▁poto	-12564
grafie	-12565
▁Kamie	-12566
▁próby	-12567
toryzacja	-12568
▁mleka	-12569
▁nakłada	-12570
mino	-12571
▁północy	-12572
▁Elżbieta	-12573
▁Turniej	-12574
▁okupa	-12575
szczona	-12576
▁klientom	-12577
▁Jedna	-12578
niejszego	-12579
bon	-12580
▁dę	-12581
▁Cru	-12582
▁wrażli	-12583
▁hydra	-12584
▁uchwa	-12585
▁iść	-12586
▁Pole	-12587
▁śniadanie	-12588
▁pud	-12589
▁Dzia	-12590
▁córka	-12591
▁życzenia	-12592
.00.	-12593
▁Ryszard	-12594
▁Brąz	-12595
żyny	-12596
▁Stacja	-12597
kus	-12598
czkami	-12599
łowia	-12600
dane	-12601
▁kategorie	-12602
▁eksploa	-12603
▁łyż	-12604
▁marka	-12605
gowanie	-12606
dujemy	-12607
▁zapomina	-12608
▁dozna	-12609
cier	-12610
▁tradycji	-12611
▁szkła	-12612
rica	-12613
▁Niepodległości	-12614
▁odpadów	-12615
lizować	-12616
▁Doku	-12617
▁najbliższych	-12618
gel	-12619
▁geografi	-12620
▁kapi	-12621
▁perfum	-12622
▁Sub	-12623
otera	-12624
mona	-12625
▁zróżnic	-12626
▁FL	-12627
▁goście	-12628
ND	-12629
letnia	-12630
▁Audio	-12631
▁drewno	-12632
▁wezwaniem	-12633
▁dojazd	-12634
▁społeczne	-12635
▁Chiny	-12636
▁autorem	-12637
▁kW	-12638
▁Panny	-12639
knąć	-12640
▁powodzeniem	-12641
▁wielokrotnie	-12642
▁Wybor	-12643
▁DZIE	-12644
▁toale	-12645
▁ante	-12646
▁mediów	-12647
czają	-12648
senek	-12649
neo	-12650
▁Izby	-12651
▁Służ	-12652
▁leków	-12653
▁ścian	-12654
▁dodatku	-12655
▁Reali	-12656
▁gimnazjum	-12657
▁powodów	-12658
ppe	-12659
▁Link	-12660
spor	-12661
▁szczyt	-12662
▁trą	-12663
zzle	-12664
teryna	-12665
Se	-12666
▁niewi	-12667
lt	-12668
▁Leś	-12669
▁Nagroda	-12670
diecezji	-12671
łością	-12672
▁Toruniu	-12673
▁price	-12674
pedy	-12675
▁okazać	-12676
▁1924	-12677
▁wielkiego	-12678
▁warzyw	-12679
sol	-12680
bn	-12681
▁uniknąć	-12682
▁Bol	-12683
▁Plat	-12684
▁ostate	-12685
▁konfli	-12686
▁rundzie	-12687
▁muzyczny	-12688
▁zachować	-12689
▁Motor	-12690
▁Stare	-12691
czków	-12692
▁dzieli	-12693
▁Obsada	-12694
▁(+	-12695
▁indywidualnie	-12696
kso	-12697
▁seks	-12698
▁sportowy	-12699
▁Muse	-12700
roczy	-12701
▁metod	-12702
▁towarzyszą	-12703
▁hasłem	-12704
▁ojczy	-12705
▁wprost	-12706
▁zawodowe	-12707
▁równowa	-12708
▁Wymaga	-12709
▁autostra	-12710
AGA	-12711
teka	-12712
województwo	-12713
stii	-12714
▁email	-12715
▁środek	-12716
▁Jer	-12717
▁niedale	-12718
▁Klienta	-12719
▁kontu	-12720
▁Uroczy	-12721
▁państwo	-12722
▁Medi	-12723
ceu	-12724
▁Porady	-12725
▁listopad	-12726
2),	-12727
▁Sym	-12728
▁utrzymanie	-12729
▁tekstów	-12730
!...	-12731
▁reż	-12732
▁Bir	-12733
▁sześciu	-12734
▁gol	-12735
ima	-12736
▁Przedstawi	-12737
zyjny	-12738
▁Słup	-12739
▁policjanci	-12740
▁kątem	-12741
▁ogrodu	-12742
EE	-12743
▁ukrywa	-12744
▁stylem	-12745
HA	-12746
▁SAM	-12747
KU	-12748
manie	-12749
▁decyduje	-12750
gania	-12751
▁wróci	-12752
▁Opole	-12753
tran	-12754
▁Szerokość	-12755
▁pokazy	-12756
▁rejestru	-12757
konie	-12758
▁status	-12759
▁orto	-12760
▁Chociaż	-12761
▁Strony	-12762
▁20.	-12763
▁inicjatywy	-12764
jewski	-12765
▁pr	-12766
nisz	-12767
OTO	-12768
ERS	-12769
dźmi	-12770
▁mail	-12771
MY	-12772
▁płci	-12773
▁Smi	-12774
jenia	-12775
▁tabeli	-12776
▁Prezydenta	-12777
▁warian	-12778
▁każdemu	-12779
▁stosunkowo	-12780
MF	-12781
▁fajne	-12782
▁szefa	-12783
owery	-12784
▁PIT	-12785
▁ver	-12786
▁Mężczyźni	-12787
▁zarządzanie	-12788
▁podla	-12789
▁prawem	-12790
▁ciepły	-12791
▁automatycznie	-12792
▁pokro	-12793
▁odkryte	-12794
▁przecię	-12795
▁PRL	-12796
wśród	-12797
▁sprawiają	-12798
▁Pożar	-12799
lue	-12800
▁Met	-12801
▁Wspo	-12802
▁zatwier	-12803
giczne	-12804
▁Banku	-12805
▁koncie	-12806
▁powstały	-12807
▁1931	-12808
▁Lar	-12809
ferze	-12810
▁Głównym	-12811
▁inwestycje	-12812
ARY	-12813
▁częściowo	-12814
aW	-12815
▁temacie	-12816
▁fili	-12817
▁oświetlenie	-12818
bat	-12819
▁zwia	-12820
▁testy	-12821
▁problemem	-12822
▁krzyż	-12823
▁Ultra	-12824
▁widzów	-12825
▁max	-12826
▁Nike	-12827
czekać	-12828
NC	-12829
tany	-12830
▁Wczoraj	-12831
▁odej	-12832
▁Proces	-12833
▁Bene	-12834
▁Człowie	-12835
▁Przemysł	-12836
▁ocen	-12837
▁2009,	-12838
▁kosmetyków	-12839
▁MI	-12840
▁przyciąga	-12841
▁tamtej	-12842
▁rankingu	-12843
▁powło	-12844
▁Karola	-12845
▁przemysłu	-12846
▁Brazylii	-12847
▁piosenek	-12848
▁Land	-12849
spira	-12850
▁wyraża	-12851
▁Kolum	-12852
▁1963	-12853
▁uzasa	-12854
▁25,	-12855
▁wystawia	-12856
▁odwa	-12857
▁byłem	-12858
▁Orygina	-12859
▁używany	-12860
▁wiąże	-12861
dena	-12862
dziesię	-12863
▁piłkarskie	-12864
▁Gdańska	-12865
▁Mes	-12866
▁Stany	-12867
▁ir	-12868
tari	-12869
▁zakon	-12870
robić	-12871
▁Jad	-12872
noszenia	-12873
▁nazwane	-12874
▁biletów	-12875
▁kursu	-12876
▁leki	-12877
▁emocji	-12878
zen	-12879
▁dw	-12880
▁skrę	-12881
▁bedzie	-12882
Więcej	-12883
▁złoto	-12884
ngeli	-12885
▁kolejowa	-12886
FF	-12887
▁wrażenia	-12888
▁bana	-12889
ash	-12890
▁handlowe	-12891
▁prostoką	-12892
torami	-12893
▁SMS	-12894
▁Londynu	-12895
prawdopodob	-12896
▁guber	-12897
▁Deut	-12898
chodzić	-12899
vp	-12900
zyna	-12901
zek	-12902
▁świeżo	-12903
▁Miejski	-12904
szanie	-12905
▁persone	-12906
▁sufi	-12907
▁Renault	-12908
▁właściciela	-12909
▁Święto	-12910
▁89	-12911
▁przyci	-12912
▁ED	-12913
utor	-12914
▁Wschodni	-12915
▁Ph	-12916
▁agre	-12917
owałem	-12918
tników	-12919
▁1957	-12920
szawa	-12921
▁Być	-12922
niane	-12923
▁UV	-12924
▁wymo	-12925
▁119	-12926
▁wyprze	-12927
siak	-12928
▁81	-12929
▁Lektur	-12930
▁Uzyska	-12931
Mie	-12932
▁Hall	-12933
▁wyborze	-12934
▁Epi	-12935
▁poseł	-12936
łowego	-12937
▁dojrza	-12938
▁Podstawowej	-12939
▁niemieckiej	-12940
chester	-12941
towie	-12942
minium	-12943
▁Odwie	-12944
ved	-12945
▁zary	-12946
ELL	-12947
▁grupę	-12948
▁utworu	-12949
▁przyjemność	-12950
▁3.0	-12951
▁leczni	-12952
rio	-12953
▁zainteresowanie	-12954
▁zagrał	-12955
wand	-12956
▁1947	-12957
▁stare	-12958
▁Dorota	-12959
amie	-12960
▁piechoty	-12961
▁Gimnazjum	-12962
▁sprawach	-12963
▁not	-12964
▁ogromną	-12965
▁sercu	-12966
▁niko	-12967
▁przekazy	-12968
▁zawodnicy	-12969
▁zapytania	-12970
▁Badania	-12971
▁Górze	-12972
whitelist	-12973
lizna	-12974
▁trybu	-12975
▁córki	-12976
▁odkrywa	-12977
▁play	-12978
▁mieszan	-12979
▁Kobiet	-12980
sprze	-12981
▁jakąś	-12982
▁koper	-12983
▁maksymalnie	-12984
▁zdob	-12985
▁rejestracji	-12986
cure	-12987
▁#1	-12988
plan	-12989
▁boku	-12990
▁jedynym	-12991
▁Straż	-12992
▁Jastrzę	-12993
▁oszu	-12994
▁tłumaczenia	-12995
▁Liceum	-12996
Qu	-12997
cre	-12998
▁wschodni	-12999
rzyj	-13000
▁widzi	-13001
▁Cur	-13002
▁świetne	-13003
▁inną	-13004
▁rozpocząć	-13005
berta	-13006
▁mora	-13007
▁daty	-13008
lecie	-13009
++	-13010
▁Offi	-13011
▁zatrudnienia	-13012
żyli	-13013
Ban	-13014
▁pion	-13015
▁Wrocławia	-13016
▁uszcze	-13017
▁widoczne	-13018
amo	-13019
/2016	-13020
▁Lekko	-13021
ни	-13022
▁Mistrzów	-13023
▁niczego	-13024
▁nerw	-13025
ones	-13026
▁strza	-13027
▁odszko	-13028
▁Classic	-13029
▁Rzymie	-13030
▁Gliwice	-13031
▁przyjęcia	-13032
zował	-13033
▁black	-13034
▁Musi	-13035
▁show	-13036
▁(30	-13037
▁poście	-13038
▁kamera	-13039
▁Cri	-13040
▁pomysły	-13041
▁wybory	-13042
▁latem	-13043
▁środka	-13044
▁Szta	-13045
▁kroku	-13046
▁doskonałe	-13047
kio	-13048
▁->	-13049
▁wyspy	-13050
▁Osiągnięcia	-13051
ZSI	-13052
▁posiadać	-13053
Pozosta	-13054
▁1937	-13055
▁emocje	-13056
seudo	-13057
Ry	-13058
syłka	-13059
▁składu	-13060
▁oryginalne	-13061
▁rywalizacji	-13062
▁oświa	-13063
▁Inte	-13064
▁technicznych	-13065
▁merytory	-13066
▁Baby	-13067
▁Kontro	-13068
▁żony	-13069
▁handlowych	-13070
▁siłę	-13071
▁czytel	-13072
jniki	-13073
▁Kurs	-13074
▁posiadamy	-13075
▁Esto	-13076
▁Zabrze	-13077
▁Live	-13078
▁teore	-13079
án	-13080
▁mer	-13081
▁Sławo	-13082
▁94	-13083
cinek	-13084
Tube	-13085
▁księży	-13086
▁zabiegu	-13087
▁teledy	-13088
▁Oku	-13089
▁nawiga	-13090
▁glu	-13091
▁zakwater	-13092
▁GP	-13093
▁Mem	-13094
rować	-13095
▁Radia	-13096
▁Gri	-13097
▁nastola	-13098
▁Syn	-13099
▁Anny	-13100
▁odświe	-13101
lity	-13102
ement	-13103
▁Hil	-13104
▁białym	-13105
sli	-13106
▁obrony	-13107
▁opóź	-13108
cznij	-13109
▁Zawody	-13110
mond	-13111
stora	-13112
letniego	-13113
▁SW	-13114
▁nietyp	-13115
dyfikowa	-13116
▁odpowiedział	-13117
▁okolic	-13118
▁Urodził	-13119
▁najwyższym	-13120
▁szukasz	-13121
▁Całość	-13122
▁opowia	-13123
▁praktyczne	-13124
▁PA	-13125
▁powiadomienia	-13126
▁most	-13127
▁najpięk	-13128
▁trz	-13129
▁druku	-13130
▁Mickie	-13131
▁mistrzem	-13132
lino	-13133
ńsk	-13134
▁Ses	-13135
▁urlop	-13136
▁włók	-13137
dąc	-13138
▁Ai	-13139
▁Dou	-13140
▁(8)	-13141
▁urodziny	-13142
▁sche	-13143
▁Beski	-13144
ial	-13145
▁rozstrzy	-13146
▁Sobo	-13147
▁Leona	-13148
▁szansa	-13149
YM	-13150
▁kosmi	-13151
▁Stal	-13152
krotny	-13153
▁Mont	-13154
▁jesień	-13155
▁Spos	-13156
ponu	-13157
▁450	-13158
▁Meto	-13159
▁użycia	-13160
▁Hiszpania	-13161
▁bohaterów	-13162
▁SD	-13163
▁prędkość	-13164
Ru	-13165
▁błyskawi	-13166
▁Łom	-13167
luj	-13168
niejszej	-13169
▁fron	-13170
▁osło	-13171
nieniu	-13172
▁klubowa	-13173
▁1926	-13174
▁narko	-13175
▁dodane	-13176
▁Web	-13177
▁czynników	-13178
▁Najnowsze	-13179
▁OL	-13180
▁Duży	-13181
▁Lampa	-13182
▁Oficer	-13183
▁mięsa	-13184
▁kamien	-13185
▁podziału	-13186
▁Previous	-13187
kolor	-13188
▁Ost	-13189
▁Rower	-13190
▁bezrobo	-13191
▁poczucie	-13192
XN	-13193
▁York	-13194
nkowa	-13195
▁zawartości	-13196
▁gwiaz	-13197
▁Chodzi	-13198
▁ZA	-13199
▁PE	-13200
Gra	-13201
▁Olej	-13202
▁fotografia	-13203
Rl	-13204
▁RO	-13205
▁ryt	-13206
▁Rzym	-13207
▁przeję	-13208
▁trend	-13209
pty	-13210
▁kwas	-13211
owicach	-13212
▁błędy	-13213
▁Niezależ	-13214
▁weeken	-13215
▁medycyny	-13216
komunika	-13217
▁czos	-13218
▁letnie	-13219
▁590	-13220
▁pokrywa	-13221
▁sobota	-13222
▁podstawowej	-13223
▁żela	-13224
▁Natalia	-13225
▁kupować	-13226
▁Akademia	-13227
▁profesjonalne	-13228
ktuj	-13229
▁szwajcar	-13230
▁Zapewnia	-13231
▁pojęcia	-13232
mena	-13233
łbym	-13234
▁możliwością	-13235
uu	-13236
▁kin	-13237
▁Moda	-13238
▁sukienki	-13239
ANS	-13240
(),	-13241
▁adre	-13242
▁osiedla	-13243
▁hodow	-13244
▁Grze	-13245
▁kina	-13246
▁Kości	-13247
szukaj	-13248
zowano	-13249
▁zdrowe	-13250
iną	-13251
▁działacz	-13252
▁Podsu	-13253
▁przystos	-13254
▁mając	-13255
▁Coraz	-13256
▁kolekcja	-13257
▁straty	-13258
deksu	-13259
▁Glo	-13260
▁that	-13261
▁1934	-13262
▁FM	-13263
rzyło	-13264
▁ture	-13265
▁opozy	-13266
▁wejść	-13267
▁żel	-13268
▁zamku	-13269
▁pogoda	-13270
▁Nożnej	-13271
▁Niemieccy	-13272
▁Leo	-13273
▁zapomnia	-13274
▁sądu	-13275
Akcesoria	-13276
▁obszaru	-13277
:00.	-13278
▁żą	-13279
▁Koper	-13280
▁księcia	-13281
▁Niepo	-13282
▁szpitalu	-13283
▁akces	-13284
▁popeł	-13285
▁ubiega	-13286
▁szlachet	-13287
▁cało	-13288
▁Juli	-13289
▁Mecz	-13290
▁wielkich	-13291
▁Br	-13292
▁Aposto	-13293
saw	-13294
nnie	-13295
▁wydał	-13296
▁znam	-13297
▁wersje	-13298
▁1949	-13299
▁umowa	-13300
taria	-13301
▁wód	-13302
▁naruszenie	-13303
skami	-13304
ektor	-13305
▁okiem	-13306
mowych	-13307
FL	-13308
szczeniu	-13309
▁obecnej	-13310
▁społeczeństwa	-13311
▁Kazimierza	-13312
▁znalezie	-13313
▁Poznania	-13314
▁snu	-13315
▁moda	-13316
ffe	-13317
▁MIE	-13318
gard	-13319
▁krótkie	-13320
▁pozytywnie	-13321
▁butów	-13322
▁Kolejny	-13323
Style	-13324
▁wolont	-13325
▁Iwo	-13326
▁Dawid	-13327
▁Ły	-13328
▁znajomych	-13329
▁Dominika	-13330
▁Częstochowa	-13331
latek	-13332
▁pielgrzy	-13333
▁Śli	-13334
▁rozmowie	-13335
lonie	-13336
▁brat	-13337
▁Przedmio	-13338
Książ	-13339
▁odporność	-13340
▁środowisku	-13341
▁Zamie	-13342
vers	-13343
dionie	-13344
strowie	-13345
max	-13346
▁Fle	-13347
').	-13348
▁sędzi	-13349
▁główną	-13350
▁Fol	-13351
▁mózgu	-13352
▁austria	-13353
▁klik	-13354
▁Komisja	-13355
▁przesyłki	-13356
▁=>	-13357
▁waga	-13358
▁tereny	-13359
▁OC	-13360
skowy	-13361
▁Cały	-13362
▁neuro	-13363
tho	-13364
▁Pil	-13365
▁wzory	-13366
10,	-13367
cjom	-13368
▁Prywa	-13369
stic	-13370
▁Sand	-13371
▁twierdzi	-13372
▁naturalnego	-13373
▁opakowania	-13374
▁Zab	-13375
▁wery	-13376
▁strefy	-13377
▁Dostępne	-13378
dych	-13379
gnacja	-13380
▁pobyt	-13381
▁Oddział	-13382
▁dodatkiem	-13383
▁DC	-13384
rc	-13385
▁Parlamentu	-13386
▁macierzy	-13387
▁przypadków	-13388
ksem	-13389
▁napast	-13390
▁zabiegi	-13391
▁swych	-13392
▁Przepisy	-13393
▁Sztuk	-13394
sco	-13395
▁ludźmi	-13396
▁(4),	-13397
▁240	-13398
▁Buda	-13399
▁kontr	-13400
▁OSP	-13401
▁Robo	-13402
▁naukę	-13403
ppy	-13404
▁warunkiem	-13405
gital	-13406
▁kolejności	-13407
dlu	-13408
▁English	-13409
chowe	-13410
led	-13411
jan	-13412
▁Katoli	-13413
▁generalnej	-13414
▁Najczęściej	-13415
▁termina	-13416
▁Imperium	-13417
sive	-13418
▁pozdra	-13419
▁Koszt	-13420
dit	-13421
▁sukcesu	-13422
ily	-13423
▁hipote	-13424
dłem	-13425
▁Bay	-13426
▁Monte	-13427
niesieniu	-13428
ŁAD	-13429
▁zabudowa	-13430
▁konsulta	-13431
▁Wierz	-13432
▁spoko	-13433
▁Kuba	-13434
wierć	-13435
▁Droga	-13436
▁muzykę	-13437
▁Trady	-13438
▁ulic	-13439
▁wpisy	-13440
▁str	-13441
▁teo	-13442
▁Toyo	-13443
▁swą	-13444
▁PI	-13445
nęli	-13446
▁Wia	-13447
▁potrzebna	-13448
▁zabiera	-13449
▁procesów	-13450
▁Owo	-13451
działek	-13452
ciami	-13453
▁kliknij	-13454
▁lokalizacja	-13455
jczyk	-13456
▁sąd	-13457
▁zielony	-13458
▁chociażby	-13459
kswa	-13460
▁przeznaczona	-13461
▁wyle	-13462
▁Konsu	-13463
▁Magazy	-13464
śc	-13465
ziem	-13466
limpia	-13467
▁spróbować	-13468
▁Regulamin	-13469
mnij	-13470
▁relak	-13471
▁dzieło	-13472
MO	-13473
▁rur	-13474
▁charakteru	-13475
▁stę	-13476
pokoj	-13477
▁byłam	-13478
▁oprogramowanie	-13479
świetlenie	-13480
▁wzniesi	-13481
▁rewela	-13482
mania	-13483
▁barwy	-13484
▁Download	-13485
▁znalazły	-13486
▁Daw	-13487
RZED	-13488
▁ostrze	-13489
▁Business	-13490
Jo	-13491
asło	-13492
▁jasne	-13493
▁olbrzy	-13494
▁zaburzenia	-13495
▁Rodzina	-13496
▁radość	-13497
▁hybry	-13498
▁1914	-13499
stroju	-13500
▁wyrzu	-13501
dzina	-13502
▁zawierają	-13503
▁więzienia	-13504
czerwo	-13505
czuk	-13506
gród	-13507
▁CB	-13508
▁pojawiła	-13509
siu	-13510
▁złożyć	-13511
▁92	-13512
▁zapoznać	-13513
▁świadczenia	-13514
▁zabezpiecza	-13515
kiewicza	-13516
▁Dziel	-13517
▁poez	-13518
stor	-13519
▁foli	-13520
▁Oba	-13521
-83	-13522
▁plo	-13523
▁prądu	-13524
Buty	-13525
ghts	-13526
▁schroni	-13527
nięciu	-13528
▁obiekcie	-13529
▁napisać	-13530
Im	-13531
▁wyło	-13532
▁repor	-13533
▁Szczególnie	-13534
▁wewnętrzne	-13535
▁małego	-13536
▁przebo	-13537
▁deko	-13538
▁dół	-13539
▁opinia	-13540
arówki	-13541
▁wyciąg	-13542
▁TER	-13543
townie	-13544
zacją	-13545
▁cóż	-13546
▁gotowy	-13547
▁arcybisku	-13548
▁wymagane	-13549
▁Artykuł	-13550
▁Case	-13551
▁osła	-13552
▁Format	-13553
▁niepodległości	-13554
▁oł	-13555
▁baterii	-13556
▁młodo	-13557
▁domach	-13558
▁wprowadzenia	-13559
▁przedmioty	-13560
▁kawiar	-13561
▁zwolni	-13562
▁zabi	-13563
▁Wykładowcy	-13564
trzymują	-13565
Hi	-13566
▁gle	-13567
▁Mark	-13568
▁Problem	-13569
kser	-13570
▁dis	-13571
dzisław	-13572
▁Możemy	-13573
▁paź	-13574
▁Gatunek	-13575
dis	-13576
▁znajomość	-13577
strzą	-13578
▁wykorzystanie	-13579
▁zapamię	-13580
▁obowiązki	-13581
nionej	-13582
▁Czarne	-13583
▁Podobne	-13584
▁Funduszu	-13585
▁stworzenie	-13586
▁Resort	-13587
▁sytuacjach	-13588
▁biżu	-13589
przeciw	-13590
likwi	-13591
▁gardero	-13592
▁jednakże	-13593
▁Napisany	-13594
▁otrzymuje	-13595
cci	-13596
▁jada	-13597
wce	-13598
▁truska	-13599
▁Wali	-13600
▁zdaje	-13601
▁Grzy	-13602
▁Występuje	-13603
▁wolna	-13604
▁błęki	-13605
▁Teatru	-13606
letniej	-13607
▁aukcje	-13608
▁przygotowane	-13609
tooth	-13610
▁walkę	-13611
szna	-13612
chodnie	-13613
UZ	-13614
▁węgl	-13615
▁Salon	-13616
▁uspo	-13617
▁poszukuje	-13618
▁śru	-13619
▁This	-13620
▁porad	-13621
▁dokumentacji	-13622
▁Czarno	-13623
zmem	-13624
▁generacji	-13625
tica	-13626
▁dostawa	-13627
▁rodziną	-13628
nr	-13629
▁kaza	-13630
ira	-13631
▁Śród	-13632
▁obowiązek	-13633
▁ścis	-13634
▁Sala	-13635
▁wiec	-13636
▁usunąć	-13637
▁van	-13638
▁katalogu	-13639
▁ekra	-13640
▁karta	-13641
▁lasu	-13642
▁pies	-13643
▁wybrane	-13644
szer	-13645
ALN	-13646
▁skutek	-13647
,,	-13648
▁1955	-13649
▁ustawie	-13650
Jeste	-13651
▁cykl	-13652
▁niewielkie	-13653
Pozostałe	-13654
dawców	-13655
▁Jork	-13656
▁Wyższej	-13657
▁Beau	-13658
▁1951	-13659
▁Cieszy	-13660
▁vo	-13661
kształcą	-13662
▁premiery	-13663
urs	-13664
▁kolorowe	-13665
▁wprowadzenie	-13666
▁°	-13667
prę	-13668
▁16.	-13669
okeiści	-13670
▁Atrakcje	-13671
new	-13672
▁częstot	-13673
UX	-13674
▁wschodniej	-13675
▁Jar	-13676
śnienie	-13677
▁tarczy	-13678
400	-13679
sponden	-13680
▁sla	-13681
onald	-13682
▁stają	-13683
▁men	-13684
▁reklamowe	-13685
▁Bartosz	-13686
▁Koza	-13687
▁podgatunki	-13688
▁South	-13689
▁obecność	-13690
mark	-13691
▁czytać	-13692
▁pocztowy	-13693
▁czynienia	-13694
▁synem	-13695
pc	-13696
▁wysyłka	-13697
▁wejścia	-13698
▁Producen	-13699
▁Album	-13700
meldowanie	-13701
bileusz	-13702
chowani	-13703
▁Śląskie	-13704
▁Mali	-13705
▁KOL	-13706
▁oczach	-13707
Name	-13708
▁Choro	-13709
rzach	-13710
▁Zakres	-13711
tatyw	-13712
ICE	-13713
fec	-13714
▁Mercedes	-13715
irl	-13716
▁użyte	-13717
▁Dziękujemy	-13718
buty	-13719
▁podziem	-13720
ceae	-13721
WE	-13722
▁atrakcyjne	-13723
▁prawdziwe	-13724
▁porze	-13725
▁Druga	-13726
▁ręką	-13727
▁Hua	-13728
▁fazie	-13729
▁sceny	-13730
▁Kawaler	-13731
▁Kolekcja	-13732
▁stoli	-13733
▁szanse	-13734
▁dystrykcie	-13735
▁wstrzyma	-13736
▁balkon	-13737
▁matera	-13738
Data	-13739
biał	-13740
▁XIV	-13741
▁Kalifor	-13742
▁Grecji	-13743
▁kary	-13744
▁stres	-13745
ior	-13746
▁zby	-13747
czących	-13748
▁przynosi	-13749
▁zgodę	-13750
video	-13751
▁Sui	-13752
ZG	-13753
wczego	-13754
▁składania	-13755
▁porównania	-13756
▁siê	-13757
”)	-13758
▁powstaje	-13759
bb	-13760
cis	-13761
▁Hot	-13762
▁Karta	-13763
▁Laurea	-13764
▁Aktyw	-13765
▁EP	-13766
▁papry	-13767
ujących	-13768
▁danym	-13769
▁najlepszego	-13770
czów	-13771
▁pakiet	-13772
▁wydzie	-13773
On	-13774
▁wymagają	-13775
Wybierz	-13776
▁czekają	-13777
▁propa	-13778
▁Krysty	-13779
▁promocja	-13780
▁poprzednich	-13781
obby	-13782
▁perfek	-13783
Pora	-13784
▁drobne	-13785
▁liga	-13786
▁naukowe	-13787
▁odżywia	-13788
▁przystęp	-13789
▁winy	-13790
▁rozsą	-13791
▁zamiar	-13792
▁wspólne	-13793
▁Wałbrzy	-13794
▁2)	-13795
mazur	-13796
rania	-13797
DZIE	-13798
▁Bea	-13799
▁fel	-13800
▁Krzyża	-13801
▁ref	-13802
▁mazowieckie	-13803
▁porno	-13804
▁patrzy	-13805
▁Kin	-13806
ful	-13807
▁relacje	-13808
▁długim	-13809
pela	-13810
godne	-13811
zety	-13812
▁akwar	-13813
▁odbędą	-13814
▁jakaś	-13815
lamy	-13816
▁bezpiecznie	-13817
▁Rośli	-13818
▁wyjątkowy	-13819
amera	-13820
▁stosowanie	-13821
▁zainteresowania	-13822
dełka	-13823
lym	-13824
▁brata	-13825
▁sala	-13826
▁podjął	-13827
▁członkowie	-13828
thor	-13829
▁Pis	-13830
▁astronomiczne	-13831
uge	-13832
▁młodzi	-13833
▁Express	-13834
▁użytkownik	-13835
▁ubiegłym	-13836
▁miesiącach	-13837
▁Sportu	-13838
lick	-13839
▁dyskusji	-13840
ор	-13841
▁wyzwa	-13842
▁obuwie	-13843
▁Kir	-13844
▁wydaniu	-13845
▁ludziom	-13846
▁MOD	-13847
▁średnia	-13848
▁salonie	-13849
zowania	-13850
cago	-13851
▁głową	-13852
▁Fili	-13853
macie	-13854
▁Elektry	-13855
▁bransole	-13856
▁Narodowy	-13857
▁zachodniopomor	-13858
▁luksus	-13859
▁ważnych	-13860
▁towarzyszy	-13861
▁Korzysta	-13862
▁1953	-13863
▁Argenty	-13864
▁rodzinne	-13865
▁Xbox	-13866
▁groź	-13867
mka	-13868
▁Obej	-13869
sne	-13870
▁wymiana	-13871
▁ograniczenia	-13872
▁wewnętrznych	-13873
chwy	-13874
▁Eco	-13875
▁czystości	-13876
▁kujawsko	-13877
▁Egip	-13878
▁Baza	-13879
▁partnera	-13880
▁skry	-13881
▁Mus	-13882
................	-13883
▁porówny	-13884
▁styczeń	-13885
omen	-13886
▁Ate	-13887
▁rekomen	-13888
▁wpływu	-13889
▁defi	-13890
▁Ką	-13891
▁miękka	-13892
▁Norwegii	-13893
▁WR	-13894
▁wysyłki	-13895
▁brał	-13896
▁doce	-13897
▁platform	-13898
▁105	-13899
▁pamięta	-13900
▁przyznać	-13901
▁ustanowi	-13902
▁Wybór	-13903
▁szkoda	-13904
ktorów	-13905
AA	-13906
▁duszy	-13907
▁jakimś	-13908
ONE	-13909
towaniu	-13910
▁dekana	-13911
▁zacznie	-13912
▁Kształ	-13913
px	-13914
▁wrócić	-13915
▁spory	-13916
teraktyw	-13917
▁przepięk	-13918
▁wielkiej	-13919
▁pełnej	-13920
▁zwrotu	-13921
!”	-13922
▁obchodzi	-13923
▁terytorium	-13924
▁związkowym	-13925
▁stół	-13926
▁trasę	-13927
▁wspomnienia	-13928
▁zachwyca	-13929
▁Koncert	-13930
▁1922	-13931
▁awan	-13932
▁Lut	-13933
▁Wyposażenie	-13934
▁1929	-13935
Zobacz	-13936
▁dźwięku	-13937
▁Środowiska	-13938
AV	-13939
▁Now	-13940
▁szo	-13941
▁fitness	-13942
▁doświadczeniem	-13943
▁Socja	-13944
nnej	-13945
▁Uczni	-13946
▁Informacji	-13947
▁strzelił	-13948
▁GL	-13949
▁wkład	-13950
▁AUT	-13951
gdzie	-13952
▁Tekst	-13953
▁zdecydować	-13954
▁geode	-13955
cielami	-13956
▁zabój	-13957
▁stylizacji	-13958
▁Peters	-13959
▁przeko	-13960
▁Bohater	-13961
▁reformy	-13962
▁uwo	-13963
▁fajnie	-13964
ponowa	-13965
▁kontrol	-13966
▁91	-13967
▁Bielsko	-13968
▁***	-13969
MB	-13970
▁Zanim	-13971
owne	-13972
▁najlepszej	-13973
▁przedpo	-13974
zyli	-13975
▁makijaż	-13976
▁morze	-13977
▁Copy	-13978
▁charakteryzuje	-13979
▁szczegółów	-13980
ол	-13981
▁przyczyną	-13982
▁zaty	-13983
▁zapłacić	-13984
▁EL	-13985
▁odrzu	-13986
▁tymże	-13987
▁Pisa	-13988
frowa	-13989
▁ryby	-13990
▁Fore	-13991
ond	-13992
ione	-13993
▁hasło	-13994
rodą	-13995
szania	-13996
▁dzisiejszych	-13997
▁Wro	-13998
▁Time	-13999
▁diete	-14000
▁różni	-14001
▁działka	-14002
▁Formuły	-14003
▁Sztuka	-14004
sex	-14005
▁Podstawowa	-14006
▁Razem	-14007
▁ostatnia	-14008
AY	-14009
▁27,	-14010
*.	-14011
▁sili	-14012
▁restauracja	-14013
▁pn	-14014
brew	-14015
▁polie	-14016
▁zawartość	-14017
▁sztafe	-14018
▁Brytyjscy	-14019
1]	-14020
▁terapii	-14021
ör	-14022
▁wyrob	-14023
rzędzia	-14024
Per	-14025
▁charakterysty	-14026
▁rezerw	-14027
▁elektryczny	-14028
▁źródłem	-14029
He	-14030
▁zapotrzeb	-14031
▁wywalczył	-14032
▁właścicieli	-14033
▁doko	-14034
▁nabo	-14035
wiła	-14036
▁zatrudnia	-14037
▁dentysty	-14038
▁zlecenie	-14039
Gry	-14040
▁wieloma	-14041
▁Anty	-14042
▁stosowany	-14043
▁God	-14044
▁Are	-14045
▁ochronie	-14046
bak	-14047
towało	-14048
▁zestawu	-14049
▁święto	-14050
▁użyć	-14051
▁Junior	-14052
▁ZAP	-14053
jną	-14054
▁Mega	-14055
Fil	-14056
▁będąc	-14057
▁Pomimo	-14058
iego	-14059
dztwie	-14060
▁zamówień	-14061
tures	-14062
▁pomysłów	-14063
▁93	-14064
dany	-14065
▁dziecku	-14066
oryte	-14067
▁Grab	-14068
▁Gum	-14069
lizacje	-14070
▁kryty	-14071
▁spokój	-14072
stwy	-14073
ceniu	-14074
cisz	-14075
▁opony	-14076
▁about	-14077
wkę	-14078
▁trzeciej	-14079
▁obfi	-14080
ląt	-14081
0)	-14082
▁bilet	-14083
tex	-14084
▁Przeczytaj	-14085
sting	-14086
▁Bilety	-14087
▁REG	-14088
fryka	-14089
▁wszedł	-14090
▁TOP	-14091
▁odgrywa	-14092
▁Nasi	-14093
2-	-14094
▁narzędzie	-14095
▁plaka	-14096
▁Chinach	-14097
▁wład	-14098
górze	-14099
▁umieszcza	-14100
▁profesora	-14101
lion	-14102
▁Podziel	-14103
▁zabiegów	-14104
bran	-14105
▁złama	-14106
▁spadek	-14107
▁komplet	-14108
▁nagrywa	-14109
▁Ostatnie	-14110
▁multimedia	-14111
▁Linia	-14112
▁doskonały	-14113
▁strefie	-14114
▁demon	-14115
▁kapsu	-14116
GA	-14117
▁1932	-14118
▁porę	-14119
▁szar	-14120
▁Legen	-14121
▁Agata	-14122
kes	-14123
▁działu	-14124
▁wykonuje	-14125
bica	-14126
▁gromad	-14127
▁języków	-14128
▁przedstawiciel	-14129
reat	-14130
▁zielone	-14131
▁1200	-14132
▁mega	-14133
▁upamię	-14134
▁rent	-14135
▁forte	-14136
czalnia	-14137
▁Tobie	-14138
▁zniż	-14139
Pe	-14140
▁metoda	-14141
dzienne	-14142
▁brzegu	-14143
kseli	-14144
▁odnaleźć	-14145
▁szkołę	-14146
▁4,5	-14147
▁osi	-14148
▁chleb	-14149
▁prawdę	-14150
▁tłumaczy	-14151
▁Dowiedz	-14152
sar	-14153
thy	-14154
▁Język	-14155
▁las	-14156
ktory	-14157
▁Niebie	-14158
▁skuteczne	-14159
▁zewnętrznych	-14160
▁Szczegół	-14161
▁chorych	-14162
DD	-14163
ич	-14164
▁zlecenia	-14165
śleć	-14166
▁UTC	-14167
▁polityka	-14168
▁utrzymać	-14169
▁twórczości	-14170
obil	-14171
▁mandat	-14172
▁elektrycznej	-14173
▁oszczędności	-14174
nier	-14175
▁planie	-14176
▁Pucharze	-14177
▁Edward	-14178
▁zrobił	-14179
▁śpiewa	-14180
▁pada	-14181
▁zdanie	-14182
sno	-14183
kury	-14184
▁Arab	-14185
▁Jos	-14186
▁egzamin	-14187
ffa	-14188
–197	-14189
▁Lecz	-14190
▁Party	-14191
▁2008,	-14192
▁zawia	-14193
bem	-14194
▁dłoni	-14195
ława	-14196
▁archidiecezji	-14197
▁26,	-14198
▁uczucie	-14199
dH	-14200
Kol	-14201
▁Ski	-14202
jeździe	-14203
▁prezentacji	-14204
Pie	-14205
▁południu	-14206
▁Świętokrzy	-14207
▁Manu	-14208
mowego	-14209
▁zroz	-14210
▁warsztatów	-14211
▁międzynarodowej	-14212
ńsku	-14213
neu	-14214
▁nud	-14215
▁Piosenki	-14216
duży	-14217
▁PRZY	-14218
▁kuchenne	-14219
ATOR	-14220
▁Paris	-14221
leta	-14222
▁wejście	-14223
▁wolnego	-14224
▁wyjątkowe	-14225
▁1.6	-14226
łkow	-14227
▁świadczy	-14228
ath	-14229
▁persona	-14230
YN	-14231
▁dodatków	-14232
▁panele	-14233
▁Zawiera	-14234
▁metalu	-14235
▁stworzy	-14236
▁Eg	-14237
▁świątyni	-14238
▁urodził	-14239
▁internetowym	-14240
▁Łę	-14241
▁żoną	-14242
▁dorob	-14243
▁służyć	-14244
▁odpowiedzieć	-14245
▁SER	-14246
▁pasażerów	-14247
:[	-14248
nowiec	-14249
▁Białymstoku	-14250
▁SN	-14251
▁Mazur	-14252
ńczyk	-14253
▁popo	-14254
▁drogach	-14255
▁chary	-14256
▁pozostawia	-14257
▁Reli	-14258
▁Inżynie	-14259
▁Rodzin	-14260
▁Słowacji	-14261
▁Dopiero	-14262
▁ramiona	-14263
ntro	-14264
▁ustalenia	-14265
▁UN	-14266
▁XII	-14267
aną	-14268
▁obecności	-14269
▁(„	-14270
▁SEO	-14271
▁Budape	-14272
KP	-14273
▁weł	-14274
▁#2	-14275
Ijoi	-14276
▁elektronicznej	-14277
▁gal	-14278
▁Divi	-14279
▁Sama	-14280
dniejsze	-14281
▁Turystyka	-14282
▁18.	-14283
pust	-14284
▁studio	-14285
▁Najświętszej	-14286
unkiem	-14287
▁Bezpła	-14288
▁PT	-14289
▁Młodzież	-14290
Rozmiar	-14291
▁prezesa	-14292
▁ciekawa	-14293
▁wydana	-14294
▁przysłu	-14295
▁1927	-14296
▁Ruchu	-14297
▁Table	-14298
nowska	-14299
woj	-14300
▁Mężczyzna	-14301
▁Biura	-14302
▁życiem	-14303
cing	-14304
▁Wrz	-14305
ctro	-14306
;)	-14307
▁zasadach	-14308
▁wsty	-14309
▁Danii	-14310
▁postanowił	-14311
▁angielskim	-14312
prawdopodobniej	-14313
▁pusty	-14314
▁ISO	-14315
ometry	-14316
▁kwota	-14317
▁łóżka	-14318
▁Zmiany	-14319
lacz	-14320
nus	-14321
▁BHP	-14322
▁motywa	-14323
▁Hill	-14324
▁Polecamy	-14325
una	-14326
lif	-14327
mion	-14328
▁promocje	-14329
UST	-14330
▁boj	-14331
dzoną	-14332
WF	-14333
panie	-14334
▁dostanie	-14335
▁Klientów	-14336
▁Archiwa	-14337
▁750	-14338
less	-14339
▁czuć	-14340
▁Wido	-14341
▁pokaz	-14342
▁papieru	-14343
▁Architektura	-14344
▁choroba	-14345
▁produkcję	-14346
zjo	-14347
▁Frydery	-14348
karki	-14349
▁_	-14350
▁stwierdził	-14351
▁Infor	-14352
▁Zdecy	-14353
▁Nauczy	-14354
▁cos	-14355
▁Agro	-14356
▁biel	-14357
rody	-14358
▁herbaty	-14359
▁mediach	-14360
▁samochodowych	-14361
▁Orange	-14362
▁wyjść	-14363
▁ekranu	-14364
mił	-14365
▁Zbro	-14366
▁Konstytu	-14367
ick	-14368
▁siód	-14369
▁YouTube	-14370
▁Nauki	-14371
▁technologie	-14372
▁Utwo	-14373
▁Reklama	-14374
▁Noc	-14375
▁drzewo	-14376
▁Paulina	-14377
▁American	-14378
▁Podróż	-14379
▁warzywa	-14380
▁zabezpieczenia	-14381
Nr	-14382
nota	-14383
▁niedługo	-14384
nieniem	-14385
pony	-14386
.....	-14387
▁Zadaj	-14388
▁garaż	-14389
▁otwarta	-14390
▁przeniósł	-14391
kładamy	-14392
▁ranking	-14393
▁Mala	-14394
▁wytwo	-14395
▁MON	-14396
▁podesz	-14397
KR	-14398
▁Konie	-14399
▁kilkunastu	-14400
Pla	-14401
skluzy	-14402
▁cechu	-14403
▁Kwiaty	-14404
▁potrzebujesz	-14405
▁Jen	-14406
słowa	-14407
▁30,	-14408
▁Żołnie	-14409
aktyw	-14410
▁złe	-14411
?!	-14412
▁emisji	-14413
▁własności	-14414
Dob	-14415
▁Gil	-14416
▁nikogo	-14417
chej	-14418
▁podkarpa	-14419
AWA	-14420
▁Studia	-14421
▁sreb	-14422
psu	-14423
▁zdą	-14424
ер	-14425
▁PAR	-14426
fię	-14427
▁samopo	-14428
cto	-14429
▁0.00	-14430
▁trzecim	-14431
▁Pochowani	-14432
▁utrzymania	-14433
▁Mły	-14434
▁Sano	-14435
▁Dyrek	-14436
▁ambi	-14437
▁Kupu	-14438
▁architektoni	-14439
▁Finał	-14440
▁węgier	-14441
▁motoryza	-14442
▁przyszłym	-14443
▁przedni	-14444
▁Słownik	-14445
▁niebo	-14446
▁Clo	-14447
▁śmia	-14448
▁pon	-14449
czucie	-14450
▁podobnych	-14451
▁terro	-14452
▁wadze	-14453
EV	-14454
▁szkoleń	-14455
program	-14456
▁odzieży	-14457
▁1925	-14458
▁Teo	-14459
▁akt	-14460
NG	-14461
▁seksual	-14462
▁bohatera	-14463
▁przyczyn	-14464
▁bramek	-14465
▁stosunek	-14466
▁wypoczynek	-14467
▁ke	-14468
▁spółek	-14469
▁powrocie	-14470
▁motywy	-14471
▁KS	-14472
▁pieczenia	-14473
▁kolejnego	-14474
pole	-14475
▁Towarzystwo	-14476
picer	-14477
▁Fri	-14478
chał	-14479
show	-14480
miał	-14481
clu	-14482
▁sum	-14483
tkowski	-14484
▁odbywają	-14485
▁pisarz	-14486
main	-14487
▁zasoby	-14488
bary	-14489
tując	-14490
▁Belgii	-14491
polskiej	-14492
▁School	-14493
tologii	-14494
▁But	-14495
▁Szymon	-14496
▁łyże	-14497
▁brać	-14498
???	-14499
wards	-14500
▁Dziedzi	-14501
▁Usuń	-14502
▁Medalem	-14503
▁Impre	-14504
▁małą	-14505
▁prawdziwy	-14506
▁ri	-14507
▁Srebrny	-14508
▁popularnych	-14509
kW	-14510
▁walczyć	-14511
▁oferują	-14512
▁sztyw	-14513
▁pełnią	-14514
wiat	-14515
iaomi	-14516
▁real	-14517
▁DOM	-14518
▁najcieka	-14519
=[	-14520
syjne	-14521
▁odnaj	-14522
foto	-14523
▁istnienia	-14524
▁wolnym	-14525
▁marketingu	-14526
▁odwro	-14527
▁opracowany	-14528
-100	-14529
▁BEZ	-14530
▁1933	-14531
niowego	-14532
pak	-14533
▁świade	-14534
▁zajmują	-14535
▁miłośników	-14536
tóż	-14537
▁Trybuna	-14538
ador	-14539
▁Tabela	-14540
▁czerwone	-14541
▁filtry	-14542
ęło	-14543
▁północny	-14544
▁Sebastian	-14545
-2016	-14546
goda	-14547
▁all	-14548
▁promu	-14549
▁dbać	-14550
▁samorzą	-14551
▁aktorki	-14552
▁podział	-14553
▁BI	-14554
shirt	-14555
▁młodego	-14556
▁Trz	-14557
rzonych	-14558
▁wydajność	-14559
▁(9)	-14560
▁Chorwacji	-14561
▁prestiż	-14562
prowadza	-14563
▁pozdrawiam	-14564
▁zaczynają	-14565
▁regulacji	-14566
▁Patri	-14567
▁NAS	-14568
▁nawo	-14569
▁komórek	-14570
Sk	-14571
▁ściąga	-14572
izon	-14573
▁fabryki	-14574
▁tenis	-14575
▁słowe	-14576
▁odpowiednim	-14577
▁Lewand	-14578
mira	-14579
▁28,	-14580
▁obszary	-14581
▁budynki	-14582
▁utworzono	-14583
▁internetowego	-14584
:00,	-14585
▁tańca	-14586
ан	-14587
▁Skła	-14588
▁dys	-14589
sopis	-14590
▁kated	-14591
/2015	-14592
▁wdra	-14593
▁aplikacje	-14594
▁});	-14595
▁zawodowych	-14596
▁Słucha	-14597
▁wyspie	-14598
▁dofinansowanie	-14599
▁neu	-14600
▁szybkiego	-14601
▁biegów	-14602
▁best	-14603
▁argu	-14604
▁Obsługa	-14605
120	-14606
▁kartę	-14607
▁postanowie	-14608
▁apartament	-14609
▁popularnością	-14610
biorze	-14611
▁Lwowie	-14612
drowie	-14613
nop	-14614
▁Obra	-14615
▁świeże	-14616
▁Thomas	-14617
▁rocznie	-14618
td	-14619
▁Show	-14620
▁medyczne	-14621
▁tkaniny	-14622
▁Zapytaj	-14623
zami	-14624
DI	-14625
▁wyjścia	-14626
walić	-14627
▁ścianie	-14628
▁przewodniczący	-14629
▁jeść	-14630
▁Młodzieży	-14631
▁1923	-14632
▁wysp	-14633
ig	-14634
arstwo	-14635
słownie	-14636
}],	-14637
▁un	-14638
gory	-14639
▁klawi	-14640
▁brytyjski	-14641
▁uśmiech	-14642
▁Night	-14643
▁mierze	-14644
▁17.	-14645
cky	-14646
▁powrotem	-14647
▁ultra	-14648
▁podobny	-14649
▁Lake	-14650
▁podro	-14651
▁podraż	-14652
▁idealna	-14653
▁rozgrywki	-14654
gera	-14655
nisa	-14656
▁dyda	-14657
▁energię	-14658
towały	-14659
::	-14660
wło	-14661
▁Policjanci	-14662
▁Broni	-14663
▁twój	-14664
▁Słońce	-14665
ferę	-14666
▁SU	-14667
▁Lokal	-14668
mulator	-14669
▁Bil	-14670
Book	-14671
▁chmu	-14672
▁Główny	-14673
▁tworząc	-14674
▁Amb	-14675
▁kamery	-14676
▁Sprzęt	-14677
----------------	-14678
▁zabrać	-14679
▁niepotrzeb	-14680
▁flo	-14681
▁ucho	-14682
▁Kit	-14683
▁desig	-14684
mit	-14685
▁XIII	-14686
matyczna	-14687
▁nadchodzą	-14688
▁Ruch	-14689
knął	-14690
▁Justyna	-14691
▁sektora	-14692
▁zalety	-14693
▁Dalej	-14694
ATY	-14695
▁pomogą	-14696
▁finansów	-14697
▁asy	-14698
szczeń	-14699
wanego	-14700
123	-14701
wina	-14702
▁lotów	-14703
▁medycznych	-14704
▁Chicago	-14705
▁Świętej	-14706
▁stanowić	-14707
▁ogo	-14708
▁style	-14709
▁przystanki	-14710
▁rokiem	-14711
▁zaprze	-14712
stau	-14713
Kar	-14714
▁Polish	-14715
ril	-14716
zow	-14717
dźwie	-14718
▁stworzenia	-14719
▁przyrodni	-14720
▁Road	-14721
▁mężczyzny	-14722
rzami	-14723
▁imienia	-14724
▁Stacje	-14725
▁Klasa	-14726
▁słońce	-14727
▁dokument	-14728
▁właścicielem	-14729
lind	-14730
▁czarnym	-14731
▁leczeniu	-14732
HN	-14733
▁Fire	-14734
ARM	-14735
etki	-14736
▁słoneczne	-14737
cur	-14738
▁oper	-14739
▁han	-14740
tary	-14741
ese	-14742
▁Przeciw	-14743
▁wymiarach	-14744
▁tramwaj	-14745
▁przystąpi	-14746
view	-14747
▁lite	-14748
htt	-14749
▁ROZ	-14750
tane	-14751
▁zintegrowa	-14752
▁Barcelona	-14753
▁użytkownicy	-14754
▁sejm	-14755
▁uzbro	-14756
▁Pę	-14757
▁urlo	-14758
els	-14759
blin	-14760
▁zbudowany	-14761
▁Poznaj	-14762
▁holender	-14763
▁MR	-14764
▁swym	-14765
▁Szczę	-14766
▁powszechnie	-14767
▁sprawoz	-14768
lips	-14769
▁świętokrzy	-14770
▁kardyna	-14771
▁1917	-14772
▁rusza	-14773
▁morder	-14774
▁amerykańskiego	-14775
IAŁ	-14776
czane	-14777
▁Wiem	-14778
600	-14779
▁całkowita	-14780
▁Nikt	-14781
▁pułku	-14782
▁przystanek	-14783
▁opada	-14784
Hotel	-14785
▁konstruk	-14786
▁Nadz	-14787
▁Współpraca	-14788
muni	-14789
▁niema	-14790
▁naturalnie	-14791
▁serwer	-14792
Ki	-14793
▁hol	-14794
▁Turcji	-14795
▁przechowywania	-14796
▁Zasady	-14797
▁uspraw	-14798
▁wytwórni	-14799
▁elektrycznych	-14800
stono	-14801
▁fragment	-14802
nować	-14803
▁Europejska	-14804
▁Narodzenia	-14805
▁naprawy	-14806
▁Neu	-14807
▁Szkolenia	-14808
▁lampa	-14809
▁celach	-14810
▁magazynu	-14811
▁chwile	-14812
▁zawarte	-14813
▁terminu	-14814
▁Instytucie	-14815
tłu	-14816
▁Dolnoślą	-14817
nięta	-14818
▁współpracu	-14819
niczne	-14820
of	-14821
▁zawodu	-14822
▁Logi	-14823
▁pasy	-14824
▁inżynier	-14825
▁Facebooku	-14826
▁Ład	-14827
kujących	-14828
▁Gospodarki	-14829
LC	-14830
▁1935	-14831
latka	-14832
▁świadomość	-14833
▁Państwowej	-14834
▁get	-14835
▁Jedną	-14836
ESS	-14837
▁zwiększenie	-14838
amia	-14839
gują	-14840
▁jedzenia	-14841
▁Dwie	-14842
▁anek	-14843
▁obca	-14844
▁Festival	-14845
łącznik	-14846
▁australi	-14847
gość	-14848
▁codziennego	-14849
▁Zachęcamy	-14850
▁Core	-14851
kcjach	-14852
omos	-14853
▁wymy	-14854
▁dyrektorem	-14855
wórz	-14856
▁have	-14857
▁wiodących	-14858
cimy	-14859
▁kr	-14860
▁wyrazi	-14861
▁dziennikarz	-14862
▁Zamek	-14863
▁tv	-14864
▁producenci	-14865
▁toru	-14866
KK	-14867
▁reprezentacyjna	-14868
wersja	-14869
wiona	-14870
▁prędko	-14871
pce	-14872
▁Podkarpa	-14873
▁tematyce	-14874
▁istnia	-14875
▁niskie	-14876
▁interesuje	-14877
▁zoo	-14878
▁Francuscy	-14879
kta	-14880
onach	-14881
▁29,	-14882
▁Federa	-14883
▁obrazów	-14884
rzchni	-14885
▁Len	-14886
▁wentyla	-14887
▁masę	-14888
▁1-	-14889
▁Dor	-14890
▁następuje	-14891
▁przypada	-14892
▁głosu	-14893
▁niepra	-14894
▁zastosowaniu	-14895
▁Bło	-14896
▁Trum	-14897
▁swobodnie	-14898
▁kierownik	-14899
▁Osob	-14900
▁sznur	-14901
▁pojedy	-14902
▁zarząd	-14903
TOR	-14904
▁London	-14905
bed	-14906
vc	-14907
▁wychodzą	-14908
▁tworzywa	-14909
▁parametry	-14910
▁mięso	-14911
▁starych	-14912
ujący	-14913
▁ziemia	-14914
▁nienawi	-14915
▁przewidzia	-14916
▁znajomości	-14917
ara	-14918
tkowym	-14919
▁inspek	-14920
Ci	-14921
▁październik	-14922
czeki	-14923
▁Wod	-14924
▁wątro	-14925
sny	-14926
▁złote	-14927
kowate	-14928
łożony	-14929
biec	-14930
▁FK	-14931
▁nazwiska	-14932
gady	-14933
▁Czechach	-14934
▁samochodowy	-14935
/8	-14936
gosłu	-14937
▁Ciekawe	-14938
gos	-14939
dnię	-14940
▁poran	-14941
zione	-14942
▁trium	-14943
▁przenoś	-14944
▁Wyją	-14945
tino	-14946
▁komuni	-14947
▁dużego	-14948
łowski	-14949
▁sołe	-14950
▁wyborem	-14951
▁klasyczne	-14952
ienie	-14953
emia	-14954
▁analiza	-14955
.4	-14956
czników	-14957
▁przeszka	-14958
▁architektury	-14959
fejs	-14960
▁Aqua	-14961
▁węz	-14962
▁domi	-14963
▁EC	-14964
▁melo	-14965
▁Piątek	-14966
róże	-14967
▁widoczny	-14968
▁Series	-14969
▁Sum	-14970
▁pokojach	-14971
▁es	-14972
▁Mix	-14973
cco	-14974
metr	-14975
Par	-14976
▁mężczyźni	-14977
▁podróżnych	-14978
▁przedmiotu	-14979
▁Chmie	-14980
▁Bul	-14981
▁LCD	-14982
łowych	-14983
-40	-14984
▁Chan	-14985
▁Mistrzostwach	-14986
stern	-14987
▁Mode	-14988
▁Wilhel	-14989
▁aparat	-14990
▁Mickiewicza	-14991
▁galakty	-14992
▁abs	-14993
▁gita	-14994
▁Medio	-14995
▁księg	-14996
▁niepod	-14997
▁zlikwi	-14998
hed	-14999
▁Czyli	-15000
wątpliwie	-15001
terium	-15002
▁trzydzie	-15003
▁Dobre	-15004
▁obecnych	-15005
▁odpar	-15006
▁Zazwyczaj	-15007
)},	-15008
▁ekspertów	-15009
ULT	-15010
szałek	-15011
tkowych	-15012
▁musia	-15013
▁ti	-15014
▁zrezygn	-15015
JE	-15016
cim	-15017
▁wyposażona	-15018
▁ogromny	-15019
▁związana	-15020
▁128	-15021
▁biurze	-15022
powszechnia	-15023
▁luty	-15024
▁wojna	-15025
▁archeo	-15026
▁amerykańskich	-15027
larne	-15028
▁powraca	-15029
▁mistrzostwa	-15030
mage	-15031
▁taś	-15032
mowała	-15033
▁rozbudowa	-15034
▁uczestniczył	-15035
WY	-15036
▁przemie	-15037
▁pracą	-15038
▁Gospodarka	-15039
insta	-15040
▁Żeby	-15041
▁powstało	-15042
▁Cią	-15043
▁ubezpieczenie	-15044
▁filmowy	-15045
▁doro	-15046
hZ	-15047
▁wid	-15048
▁komuna	-15049
cznia	-15050
▁Materiały	-15051
▁astro	-15052
vá	-15053
▁Test	-15054
▁nume	-15055
▁Ky	-15056
▁fut	-15057
ré	-15058
▁podopie	-15059
▁Styl	-15060
▁Nag	-15061
▁80.	-15062
▁płytki	-15063
▁wykonywane	-15064
▁śpiew	-15065
▁Studen	-15066
▁Tal	-15067
not	-15068
▁czci	-15069
▁zdjęciach	-15070
▁Aca	-15071
▁Także	-15072
▁zabawę	-15073
▁August	-15074
▁współpraca	-15075
▁zrozumieć	-15076
-31	-15077
▁zimą	-15078
▁dż	-15079
▁nadmier	-15080
▁wysokich	-15081
▁opowieść	-15082
▁wyrobów	-15083
▁Lau	-15084
splay	-15085
▁pokre	-15086
/16	-15087
▁toa	-15088
▁Żu	-15089
▁dostępność	-15090
zin	-15091
▁grubości	-15092
▁Sądu	-15093
▁siedziba	-15094
▁zwiększyć	-15095
▁Wybiera	-15096
▁drz	-15097
▁doleg	-15098
?...	-15099
▁zagadnienia	-15100
▁wykry	-15101
▁tri	-15102
▁należał	-15103
▁Podział	-15104
▁Interesuje	-15105
Ori	-15106
Zdrój	-15107
▁koordyna	-15108
przewodni	-15109
▁Podaj	-15110
▁rzeka	-15111
tyny	-15112
▁walk	-15113
▁biskupa	-15114
żną	-15115
owicza	-15116
▁dostał	-15117
▁przerwa	-15118
GS	-15119
gri	-15120
▁otworzyć	-15121
▁nieustan	-15122
▁Myśli	-15123
trywa	-15124
▁mija	-15125
▁Premiera	-15126
fir	-15127
▁partnerów	-15128
▁morzem	-15129
▁Wood	-15130
townia	-15131
▁językiem	-15132
▁szerokie	-15133
▁zakupie	-15134
▁sena	-15135
▁Świąty	-15136
150	-15137
dziesięciu	-15138
▁niemieckich	-15139
blu	-15140
▁metali	-15141
Du	-15142
▁Ameryce	-15143
mocy	-15144
▁obron	-15145
hip	-15146
▁występowania	-15147
nonimowy	-15148
należ	-15149
▁sprzed	-15150
źnik	-15151
▁załat	-15152
▁tożsamo	-15153
▁Bła	-15154
▁nierdzewnej	-15155
▁AZS	-15156
▁Żydów	-15157
▁Wszel	-15158
▁obszer	-15159
▁mianowany	-15160
▁szczegółowe	-15161
▁pou	-15162
▁lektury	-15163
▁Kasia	-15164
PN	-15165
▁5000	-15166
▁zwrot	-15167
▁978-83	-15168
▁Miejskiego	-15169
▁jednorazowe	-15170
▁”	-15171
▁lakier	-15172
▁parlamentar	-15173
▁pozycja	-15174
▁ve	-15175
▁świetna	-15176
▁Produkcja	-15177
▁Czasem	-15178
▁Etui	-15179
▁przejścia	-15180
▁kapu	-15181
pinie	-15182
▁HR	-15183
mpki	-15184
stuje	-15185
▁kanał	-15186
Ah	-15187
pomnia	-15188
▁walka	-15189
▁lot	-15190
▁przykry	-15191
blog	-15192
pers	-15193
/18	-15194
▁górach	-15195
▁miastem	-15196
▁Jul	-15197
▁ukocha	-15198
▁Stefana	-15199
▁wyglądu	-15200
▁Warsztaty	-15201
▁MIN	-15202
▁siedzą	-15203
właści	-15204
DE	-15205
▁warmińsko	-15206
▁fiska	-15207
▁naprawa	-15208
▁ugo	-15209
▁Niedziela	-15210
▁nadają	-15211
▁minucie	-15212
sed	-15213
▁Ośrodka	-15214
riuszy	-15215
▁Przemysław	-15216
hor	-15217
rowane	-15218
istnie	-15219
▁skorzystania	-15220
asing	-15221
▁Prokura	-15222
▁pedagogi	-15223
▁Extra	-15224
▁specjalny	-15225
▁bagaż	-15226
▁ER	-15227
▁DS	-15228
▁Klienci	-15229
▁lokal	-15230
▁Poje	-15231
XV	-15232
▁biznesowych	-15233
▁ziemię	-15234
▁wodne	-15235
▁Oprawa	-15236
▁akcesori	-15237
▁Władysława	-15238
▁Przejdź	-15239
szkiem	-15240
▁Bad	-15241
mek	-15242
▁założony	-15243
▁CS	-15244
▁Fee	-15245
▁90.	-15246
▁odnośnie	-15247
▁va	-15248
▁łaci	-15249
▁trendy	-15250
▁wymienić	-15251
▁prawach	-15252
▁Richard	-15253
▁GPS	-15254
stanu	-15255
niany	-15256
▁regulami	-15257
▁Luba	-15258
▁klubów	-15259
▁wakacji	-15260
▁Ach	-15261
▁naszy	-15262
westi	-15263
▁Potrze	-15264
▁praktyki	-15265
▁propor	-15266
▁Wówczas	-15267
▁Museum	-15268
▁Uwielbia	-15269
dop	-15270
▁weź	-15271
▁granicę	-15272
▁wyśle	-15273
▁deweloper	-15274
▁East	-15275
▁zamor	-15276
▁pseudo	-15277
({	-15278
▁Copyright	-15279
▁szybka	-15280
rael	-15281
sud	-15282
▁delega	-15283
▁najtań	-15284
▁baro	-15285
▁przejazd	-15286
▁jedyne	-15287
▁strefa	-15288
▁infrastruktury	-15289
▁ELE	-15290
▁Wielkanoc	-15291
▁Johan	-15292
▁telefonów	-15293
lonii	-15294
▁1912	-15295
▁CA	-15296
▁silnie	-15297
▁przedsiębiorcy	-15298
▁aktualne	-15299
▁KW	-15300
lich	-15301
▁Wspania	-15302
\\	-15303
▁wszelkiego	-15304
wanej	-15305
▁Wios	-15306
▁wystąpienia	-15307
▁under	-15308
▁zapropon	-15309
▁opowieści	-15310
▁nieja	-15311
▁kontynua	-15312
▁Dream	-15313
▁amerykańska	-15314
▁tane	-15315
▁oceniane	-15316
▁Apart	-15317
▁przewidu	-15318
▁obroni	-15319
▁mieliśmy	-15320
▁Line	-15321
▁Kacz	-15322
▁Przegląd	-15323
▁określonych	-15324
▁res	-15325
eryfikowa	-15326
▁marzenia	-15327
źle	-15328
leka	-15329
▁Puła	-15330
▁Pala	-15331
.-	-15332
▁Indywidual	-15333
▁wypu	-15334
▁dekol	-15335
▁koszu	-15336
▁zawoła	-15337
4-	-15338
▁weselne	-15339
▁spodziewać	-15340
▁Game	-15341
▁konsoli	-15342
▁suchy	-15343
▁impreza	-15344
Sh	-15345
▁Box	-15346
▁dysko	-15347
▁ogólnie	-15348
Star	-15349
▁Zastosowanie	-15350
letnim	-15351
gby	-15352
▁Moskwa	-15353
▁(12	-15354
tulu	-15355
dron	-15356
▁skrom	-15357
NET	-15358
uta	-15359
▁serwe	-15360
QU	-15361
▁róża	-15362
tniki	-15363
▁poety	-15364
Tar	-15365
▁Igrzyska	-15366
▁właściwy	-15367
▁spódni	-15368
▁przekonać	-15369
GL	-15370
▁pierście	-15371
dowana	-15372
Aktual	-15373
wiercie	-15374
▁zdania	-15375
▁edukacyjne	-15376
▁Wizy	-15377
▁zdzi	-15378
rzewa	-15379
▁podkreślił	-15380
▁Żół	-15381
▁ber	-15382
syła	-15383
▁odwiedzić	-15384
▁finanse	-15385
▁Koła	-15386
▁znajdująca	-15387
cta	-15388
▁TY	-15389
siad	-15390
▁skutki	-15391
tyz	-15392
▁odręb	-15393
wers	-15394
▁Róża	-15395
▁wspaniałe	-15396
▁fizycznej	-15397
key	-15398
gom	-15399
kreś	-15400
▁uszy	-15401
▁zauważy	-15402
gium	-15403
FT	-15404
śpie	-15405
▁Blan	-15406
▁zastanowi	-15407
▁brzmi	-15408
▁papież	-15409
rys	-15410
▁akcję	-15411
gowie	-15412
▁ładow	-15413
sb	-15414
▁zajmował	-15415
▁przestron	-15416
cess	-15417
▁Lod	-15418
▁neo	-15419
▁zakwalifikowa	-15420
▁epide	-15421
▁Wybrane	-15422
JS	-15423
▁niemożli	-15424
nką	-15425
▁piosenka	-15426
▁AV	-15427
▁kontrolę	-15428
ini	-15429
skowych	-15430
▁Volkswa	-15431
▁Jawo	-15432
▁poszukiwania	-15433
DY	-15434
▁Umie	-15435
▁komis	-15436
▁bólu	-15437
gun	-15438
▁aktywność	-15439
owaliśmy	-15440
▁wybierać	-15441
elu	-15442
▁pozwolą	-15443
▁zabrakło	-15444
rot	-15445
▁anio	-15446
$$	-15447
▁rozmiarów	-15448
▁szkołach	-15449
▁Kel	-15450
▁Ocho	-15451
▁wypoczynku	-15452
▁Wkrótce	-15453
▁Duda	-15454
▁Zimowych	-15455
▁Forma	-15456
▁powiadomienie	-15457
▁zgłoszenia	-15458
▁Karpa	-15459
▁fryzjer	-15460
▁Komi	-15461
▁Zdaniem	-15462
pper	-15463
rzać	-15464
▁Przecież	-15465
▁wrzu	-15466
▁Komor	-15467
▁zadowolony	-15468
▁BIP	-15469
▁Czarna	-15470
▁błogosła	-15471
▁Nauka	-15472
▁głosy	-15473
▁wynoszą	-15474
▁poroz	-15475
▁Apartamenty	-15476
▁działce	-15477
AMI	-15478
▁służył	-15479
▁wnioski	-15480
niczego	-15481
▁podane	-15482
▁paliw	-15483
▁Północna	-15484
▁deser	-15485
▁poprawi	-15486
kowskim	-15487
▁fizycznych	-15488
▁średnich	-15489
▁perspektywy	-15490
HT	-15491
▁odmów	-15492
▁Włodzi	-15493
▁pożegna	-15494
1),	-15495
wirus	-15496
▁zmienił	-15497
▁Monitor	-15498
mate	-15499
▁sakra	-15500
▁akcesoriów	-15501
▁97883	-15502
▁115	-15503
▁poprawić	-15504
dorf	-15505
▁użytkowni	-15506
:*	-15507
żania	-15508
▁Trenerzy	-15509
door	-15510
▁osiągnął	-15511
letnią	-15512
[...]
